{
  "version": "1.0",
  "truncation": null,
  "padding": null,
  "added_tokens": [
    {
      "id": 0,
      "content": "[UNK]",
      "single_word": false,
      "lstrip": false,
      "rstrip": false,
      "normalized": false,
      "special": true
    },
    {
      "id": 1,
      "content": "[CLS]",
      "single_word": false,
      "lstrip": false,
      "rstrip": false,
      "normalized": false,
      "special": true
    },
    {
      "id": 2,
      "content": "[SEP]",
      "single_word": false,
      "lstrip": false,
      "rstrip": false,
      "normalized": false,
      "special": true
    },
    {
      "id": 3,
      "content": "[PAD]",
      "single_word": false,
      "lstrip": false,
      "rstrip": false,
      "normalized": false,
      "special": true
    },
    {
      "id": 4,
      "content": "[MASK]",
      "single_word": false,
      "lstrip": false,
      "rstrip": false,
      "normalized": false,
      "special": true
    }
  ],
  "normalizer": null,
  "pre_tokenizer": {
    "type": "ByteLevel",
    "add_prefix_space": true,
    "trim_offsets": true,
    "use_regex": true
  },
  "post_processor": null,
  "decoder": null,
  "model": {
    "type": "BPE",
    "dropout": null,
    "unk_token": "[UNK]",
    "continuing_subword_prefix": null,
    "end_of_word_suffix": null,
    "fuse_unk": false,
    "byte_fallback": false,
    "ignore_merges": false,
    "vocab": {
      "[UNK]": 0,
      "[CLS]": 1,
      "[SEP]": 2,
      "[PAD]": 3,
      "[MASK]": 4,
      "!": 5,
      "\"": 6,
      "#": 7,
      "$": 8,
      "%": 9,
      "&": 10,
      "'": 11,
      "(": 12,
      ")": 13,
      "*": 14,
      "+": 15,
      ",": 16,
      "-": 17,
      ".": 18,
      "/": 19,
      "0": 20,
      "1": 21,
      "2": 22,
      "3": 23,
      "4": 24,
      "5": 25,
      "6": 26,
      "7": 27,
      "8": 28,
      "9": 29,
      ":": 30,
      ";": 31,
      "<": 32,
      "=": 33,
      ">": 34,
      "?": 35,
      "@": 36,
      "A": 37,
      "B": 38,
      "C": 39,
      "D": 40,
      "E": 41,
      "F": 42,
      "G": 43,
      "H": 44,
      "I": 45,
      "J": 46,
      "K": 47,
      "L": 48,
      "M": 49,
      "N": 50,
      "O": 51,
      "P": 52,
      "Q": 53,
      "R": 54,
      "S": 55,
      "T": 56,
      "U": 57,
      "V": 58,
      "W": 59,
      "X": 60,
      "Y": 61,
      "Z": 62,
      "[": 63,
      "\\": 64,
      "]": 65,
      "^": 66,
      "_": 67,
      "`": 68,
      "a": 69,
      "b": 70,
      "c": 71,
      "d": 72,
      "e": 73,
      "f": 74,
      "g": 75,
      "h": 76,
      "i": 77,
      "j": 78,
      "k": 79,
      "l": 80,
      "m": 81,
      "n": 82,
      "o": 83,
      "p": 84,
      "q": 85,
      "r": 86,
      "s": 87,
      "t": 88,
      "u": 89,
      "v": 90,
      "w": 91,
      "x": 92,
      "y": 93,
      "z": 94,
      "{": 95,
      "|": 96,
      "}": 97,
      "~": 98,
      "¡": 99,
      "¢": 100,
      "£": 101,
      "¤": 102,
      "¥": 103,
      "¦": 104,
      "§": 105,
      "¨": 106,
      "©": 107,
      "ª": 108,
      "«": 109,
      "¬": 110,
      "®": 111,
      "¯": 112,
      "°": 113,
      "±": 114,
      "²": 115,
      "³": 116,
      "´": 117,
      "µ": 118,
      "¶": 119,
      "·": 120,
      "¸": 121,
      "¹": 122,
      "º": 123,
      "»": 124,
      "¼": 125,
      "½": 126,
      "¾": 127,
      "¿": 128,
      "À": 129,
      "Á": 130,
      "Â": 131,
      "Ã": 132,
      "Ä": 133,
      "Å": 134,
      "Æ": 135,
      "Ç": 136,
      "È": 137,
      "É": 138,
      "Ê": 139,
      "Ë": 140,
      "Ì": 141,
      "Í": 142,
      "Î": 143,
      "Ï": 144,
      "Ð": 145,
      "Ñ": 146,
      "Ò": 147,
      "Ó": 148,
      "Ô": 149,
      "Õ": 150,
      "Ö": 151,
      "×": 152,
      "Ø": 153,
      "Ù": 154,
      "Ú": 155,
      "Û": 156,
      "Ü": 157,
      "Ý": 158,
      "Þ": 159,
      "ß": 160,
      "à": 161,
      "á": 162,
      "â": 163,
      "ã": 164,
      "ä": 165,
      "å": 166,
      "æ": 167,
      "ç": 168,
      "è": 169,
      "é": 170,
      "ê": 171,
      "ë": 172,
      "ì": 173,
      "í": 174,
      "î": 175,
      "ï": 176,
      "ð": 177,
      "ñ": 178,
      "ò": 179,
      "ó": 180,
      "ô": 181,
      "õ": 182,
      "ö": 183,
      "÷": 184,
      "ø": 185,
      "ù": 186,
      "ú": 187,
      "û": 188,
      "ü": 189,
      "ý": 190,
      "þ": 191,
      "ÿ": 192,
      "Ā": 193,
      "ā": 194,
      "Ă": 195,
      "ă": 196,
      "Ą": 197,
      "ą": 198,
      "Ć": 199,
      "ć": 200,
      "Ĉ": 201,
      "ĉ": 202,
      "Ċ": 203,
      "ċ": 204,
      "Č": 205,
      "č": 206,
      "Ď": 207,
      "ď": 208,
      "Đ": 209,
      "đ": 210,
      "Ē": 211,
      "ē": 212,
      "Ĕ": 213,
      "ĕ": 214,
      "Ė": 215,
      "ė": 216,
      "Ę": 217,
      "ę": 218,
      "Ě": 219,
      "ě": 220,
      "Ĝ": 221,
      "ĝ": 222,
      "Ğ": 223,
      "ğ": 224,
      "Ġ": 225,
      "ġ": 226,
      "Ģ": 227,
      "ģ": 228,
      "Ĥ": 229,
      "ĥ": 230,
      "Ħ": 231,
      "ħ": 232,
      "Ĩ": 233,
      "ĩ": 234,
      "Ī": 235,
      "ī": 236,
      "Ĭ": 237,
      "ĭ": 238,
      "Į": 239,
      "į": 240,
      "İ": 241,
      "ı": 242,
      "Ĳ": 243,
      "ĳ": 244,
      "Ĵ": 245,
      "ĵ": 246,
      "Ķ": 247,
      "ķ": 248,
      "ĸ": 249,
      "Ĺ": 250,
      "ĺ": 251,
      "Ļ": 252,
      "ļ": 253,
      "Ľ": 254,
      "ľ": 255,
      "Ŀ": 256,
      "ŀ": 257,
      "Ł": 258,
      "ł": 259,
      "Ń": 260,
      "Ġt": 261,
      "Ġa": 262,
      "in": 263,
      "he": 264,
      "re": 265,
      "ï¼": 266,
      "ä¸": 267,
      "on": 268,
      "at": 269,
      "çļ": 270,
      "çļĦ": 271,
      "ï¼Į": 272,
      "Ġs": 273,
      "Ġc": 274,
      "nd": 275,
      "ãĢ": 276,
      "er": 277,
      "Ġthe": 278,
      "es": 279,
      "en": 280,
      "or": 281,
      "an": 282,
      "Ġand": 283,
      "Ġp": 284,
      "ing": 285,
      "it": 286,
      "al": 287,
      "ãĢĤ": 288,
      "Ġo": 289,
      "Ġw": 290,
      "ä»": 291,
      "Ġto": 292,
      "is": 293,
      "ou": 294,
      "Ġm": 295,
      "äº": 296,
      "Ġin": 297,
      "Ġf": 298,
      "Ġb": 299,
      "ed": 300,
      "ion": 301,
      "åı": 302,
      "ic": 303,
      "Ġd": 304,
      "Ġof": 305,
      "le": 306,
      "ar": 307,
      "ro": 308,
      "ĠĠ": 309,
      "åħ": 310,
      "ent": 311,
      "æľ": 312,
      "Ġe": 313,
      "åĴ": 314,
      "è¿": 315,
      "ä½": 316,
      "åĴĮ": 317,
      "æĪ": 318,
      "å®": 319,
      "åĪ": 320,
      "ve": 321,
      "us": 322,
      "Ġre": 323,
      "Ġh": 324,
      "Ġth": 325,
      "as": 326,
      "ct": 327,
      "çĶ": 328,
      "om": 329,
      "åľ": 330,
      "å¤": 331,
      "æĺ": 332,
      "åĬ": 333,
      "åĲ": 334,
      "ä¸Ģ": 335,
      "im": 336,
      "è¯": 337,
      "æĸ": 338,
      "ation": 339,
      "lo": 340,
      "ç»": 341,
      "Ġbe": 342,
      "ãĢģ": 343,
      "id": 344,
      "Ġcan": 345,
      "il": 346,
      "æĺ¯": 347,
      "ä¹": 348,
      "è®": 349,
      "ĠA": 350,
      "ĠT": 351,
      "Ġthat": 352,
      "ä»¥": 353,
      "ch": 354,
      "Ġy": 355,
      "ce": 356,
      "ï¼ļ": 357,
      "ot": 358,
      "ers": 359,
      "Ġn": 360,
      "éĢ": 361,
      "ra": 362,
      "å°": 363,
      "Ġg": 364,
      "Ġyou": 365,
      "åŃ": 366,
      "Ġpro": 367,
      "et": 368,
      "åº": 369,
      "åľ¨": 370,
      "ly": 371,
      "Ġis": 372,
      "ä¸ª": 373,
      "Ġl": 374,
      "ur": 375,
      "Ġfor": 376,
      "åı¯": 377,
      "éĩ": 378,
      "st": 379,
      "çļĦæ": 380,
      "ĠI": 381,
      "ut": 382,
      "Ġhe": 383,
      "if": 384,
      "ĥ½": 385,
      "ä¼": 386,
      "è¡": 387,
      "ir": 388,
      "ith": 389,
      "å¹": 390,
      "Ġare": 391,
      "ig": 392,
      "Ġst": 393,
      "el": 394,
      "ol": 395,
      "å¸": 396,
      "ul": 397,
      "æĿ": 398,
      "æĪĳ": 399,
      "Ġon": 400,
      "è¦": 401,
      "æľī": 402,
      "æĹ": 403,
      "å¯": 404,
      "è§": 405,
      "è¦ģ": 406,
      "Ġus": 407,
      "ay": 408,
      "æķ": 409,
      "çī": 410,
      "ow": 411,
      "ment": 412,
      "çĶ¨": 413,
      "ess": 414,
      "ä¸Ń": 415,
      "ä»¬": 416,
      "äºº": 417,
      "Ġex": 418,
      "åĩ": 419,
      "ĠĠĠĠ": 420,
      "åĽ": 421,
      "åĮ": 422,
      "å¼": 423,
      "Ġcon": 424,
      "se": 425,
      "èĥ½": 426,
      "çİ": 427,
      "Ġan": 428,
      "Ġwith": 429,
      "ä¸º": 430,
      "ate": 431,
      "iv": 432,
      "am": 433,
      "Ġas": 434,
      "ure": 435,
      "è¿Ļ": 436,
      "åĨ": 437,
      "çŃ": 438,
      "Ġor": 439,
      "å·": 440,
      "Ġal": 441,
      "ies": 442,
      "ç§": 443,
      "Ġim": 444,
      "æĢ": 445,
      "ver": 446,
      "ab": 447,
      "äºĨ": 448,
      "Ġsu": 449,
      "Ġde": 450,
      "ge": 451,
      "th": 452,
      "åı¯ä»¥": 453,
      "èĢ": 454,
      "ä¸į": 455,
      "ĠC": 456,
      "å¾": 457,
      "ĠAI": 458,
      "Ġen": 459,
      "éĹ": 460,
      "æī": 461,
      "ak": 462,
      "ive": 463,
      "Ġmo": 464,
      "å¥": 465,
      "éĿ": 466,
      "çĽ": 467,
      "ity": 468,
      "ä¿": 469,
      "un": 470,
      "è´": 471,
      "åį": 472,
      "Ġit": 473,
      "Ġimp": 474,
      "ect": 475,
      "æł": 476,
      "å½": 477,
      "èĩ": 478,
      "é¢": 479,
      "åĵ": 480,
      "æ³": 481,
      "ort": 482,
      "ad": 483,
      "æŀ": 484,
      "em": 485,
      "ĠS": 486,
      "Ġcom": 487,
      "å¦": 488,
      "ĠThe": 489,
      "her": 490,
      "ere": 491,
      "ial": 492,
      "çĲ": 493,
      "çĶŁ": 494,
      "æĦ": 495,
      "pp": 496,
      "æŃ": 497,
      "æĸ¹": 498,
      "qu": 499,
      "Ġwh": 500,
      "å¦Ĥ": 501,
      "éľ": 502,
      "ant": 503,
      "Ġle": 504,
      "Ġv": 505,
      "æĭ": 506,
      "æĬ": 507,
      "ust": 508,
      "æĹ¶": 509,
      "çŃī": 510,
      "åĳ": 511,
      "å¯¹": 512,
      "ter": 513,
      "ld": 514,
      "è¡Į": 515,
      "Ġch": 516,
      "ud": 517,
      "éľĢ": 518,
      "æ°": 519,
      "Ġ|": 520,
      "æĪĲ": 521,
      "ac": 522,
      "ain": 523,
      "iz": 524,
      "ĠH": 525,
      "æı": 526,
      "ions": 527,
      "Ġha": 528,
      "æĽ": 529,
      "--": 530,
      "æĿ¥": 531,
      "ome": 532,
      "å¿": 533,
      "'s": 534,
      "Ġne": 535,
      "est": 536,
      "ä¾": 537,
      "um": 538,
      "åĪ°": 539,
      "åľ°": 540,
      "ist": 541,
      "âĢ": 542,
      "çī©": 543,
      "ä¸Ģä¸ª": 544,
      "lp": 545,
      "æİ": 546,
      "èĩª": 547,
      "Ġhelp": 548,
      "Ġtheir": 549,
      "æĶ": 550,
      "ĠTh": 551,
      "ä½ľ": 552,
      "ä¼ļ": 553,
      "æĮ": 554,
      "æĪĳä»¬": 555,
      "nt": 556,
      "äºİ": 557,
      "åĪĨ": 558,
      "res": 559,
      "pe": 560,
      "åĩº": 561,
      "ide": 562,
      "æĥ": 563,
      "ĠM": 564,
      "è¾": 565,
      "ff": 566,
      "æ¯": 567,
      "od": 568,
      "ical": 569,
      "Ġwor": 570,
      "ä¸Ĭ": 571,
      "are": 572,
      "æĽ´": 573,
      "Ġyour": 574,
      "ä¸ĭ": 575,
      "èµ": 576,
      "ations": 577,
      "æķ°": 578,
      "Ġte": 579,
      "åİ": 580,
      "çĲĨ": 581,
      "è¿ĩ": 582,
      "å¹¶": 583,
      "du": 584,
      "Ġad": 585,
      "éĿ¢": 586,
      "ill": 587,
      "æµ": 588,
      "å¥½": 589,
      "oc": 590,
      "act": 591,
      "éľĢè¦ģ": 592,
      "ä»ĸ": 593,
      "å±": 594,
      "Ġr": 595,
      "Ġmore": 596,
      "åŃ¦": 597,
      "ç®": 598,
      "igh": 599,
      "äºĽ": 600,
      "ĠB": 601,
      "åĬ¨": 602,
      "åĵģ": 603,
      "èī": 604,
      "Ġinc": 605,
      "ple": 606,
      "åĲĮ": 607,
      "Ġexp": 608,
      "ould": 609,
      "ä½ł": 610,
      "ĠP": 611,
      "æį": 612,
      "æıĲ": 613,
      "å¤§": 614,
      "çİ°": 615,
      "pt": 616,
      "all": 617,
      "åĬł": 618,
      "ç§į": 619,
      "Ġse": 620,
      "åĬĽ": 621,
      "out": 622,
      "Ġhave": 623,
      "çº": 624,
      "ä½ĵ": 625,
      "ĠThis": 626,
      "Ġprov": 627,
      "åĮĸ": 628,
      "å¤ļ": 629,
      "å®ļ": 630,
      "Ġused": 631,
      "éĢļ": 632,
      "cc": 633,
      "è¿Ľ": 634,
      "æ´": 635,
      "Ġsh": 636,
      "Ġab": 637,
      "os": 638,
      "Ġres": 639,
      "ĠW": 640,
      "ç¨": 641,
      "æĢ§": 642,
      "age": 643,
      "ri": 644,
      "æ¸": 645,
      "able": 646,
      "åŃĲ": 647,
      "Ġby": 648,
      "åıĳ": 649,
      "éĩı": 650,
      "åºĶ": 651,
      "Ġlo": 652,
      "ä½¿": 653,
      "åħ¶": 654,
      "é«": 655,
      "éĻ": 656,
      "é«ĺ": 657,
      "åº¦": 658,
      "è§£": 659,
      "é£": 660,
      "å°Ĩ": 661,
      "æ³ķ": 662,
      "and": 663,
      "ä¿Ŀ": 664,
      "ans": 665,
      "for": 666,
      "rom": 667,
      "reat": 668,
      "Ġpl": 669,
      "çļĦç": 670,
      "å¸¸": 671,
      "è½": 672,
      "Ġwe": 673,
      "è¡¨": 674,
      "ake": 675,
      "æĪĸ": 676,
      "é¢ĺ": 677,
      "åŁ": 678,
      "Ġme": 679,
      "æĸĩ": 680,
      "ther": 681,
      "ke": 682,
      "å®¶": 683,
      "åĲĪ": 684,
      "æľĢ": 685,
      "ĠE": 686,
      "ine": 687,
      "Ġsome": 688,
      "ç±": 689,
      "éĩį": 690,
      "æŀľ": 691,
      "éĺ": 692,
      "our": 693,
      "rou": 694,
      "ĠD": 695,
      "çĤ": 696,
      "æ±": 697,
      "åħ³": 698,
      "Ġint": 699,
      "ance": 700,
      "ä¹Ł": 701,
      "éģ": 702,
      "ĠĠĠ": 703,
      "å®ĥ": 704,
      "ag": 705,
      "æ¬": 706,
      "00": 707,
      "è°": 708,
      "ult": 709,
      "yst": 710,
      "éĹ´": 711,
      "ĠF": 712,
      "Ġtr": 713,
      "ç³": 714,
      "pl": 715,
      "art": 716,
      "æĦŁ": 717,
      "æĤ": 718,
      "ata": 719,
      "form": 720,
      "è®¡": 721,
      "Ġfrom": 722,
      "éĹ®": 723,
      "ight": 724,
      "ces": 725,
      "æį®": 726,
      "lop": 727,
      "ĠR": 728,
      "ä¹ĭ": 729,
      "Ġ1": 730,
      "Ġfe": 731,
      "åģ": 732,
      "velop": 733,
      "åĽł": 734,
      "ks": 735,
      "æ²": 736,
      "Ġu": 737,
      "å°ı": 738,
      "ystem": 739,
      "Ġdis": 740,
      "gy": 741,
      "å·¥": 742,
      "ç¨ĭ": 743,
      "å¢": 744,
      "ence": 745,
      "èĤ": 746,
      "ç¡": 747,
      "Ġtra": 748,
      "å»": 749,
      "åħ¥": 750,
      "ign": 751,
      "alth": 752,
      "Ġsuch": 753,
      "ach": 754,
      "æĻ": 755,
      "arn": 756,
      "Ġdata": 757,
      "è¶": 758,
      "å®ŀ": 759,
      "so": 760,
      "Ġdevelop": 761,
      "ç¤": 762,
      "Ġacc": 763,
      "ast": 764,
      "èĢĮ": 765,
      "Ġ\"": 766,
      "Ġother": 767,
      "å»º": 768,
      "Ġeff": 769,
      "ç«": 770,
      "Ġman": 771,
      "åħ¬": 772,
      "åĢ": 773,
      "çĦ": 774,
      "ms": 775,
      "å¼ı": 776,
      "èī²": 777,
      "å¾Ĺ": 778,
      "ific": 779,
      "Ġj": 780,
      "Ġro": 781,
      "Ġhas": 782,
      "chn": 783,
      "olo": 784,
      "åĪ¶": 785,
      "èĬ": 786,
      "ä½¿çĶ¨": 787,
      "ous": 788,
      "ual": 789,
      "Ġat": 790,
      "Ġem": 791,
      "ell": 792,
      "Ġsystem": 793,
      "Ġhealth": 794,
      "ities": 795,
      "Ġexam": 796,
      "ib": 797,
      "éĶ": 798,
      "Ġabout": 799,
      "äº§": 800,
      "åĲİ": 801,
      "æĦı": 802,
      "ç±»": 803,
      "Ġpre": 804,
      "æĤ¨": 805,
      "Ġalso": 806,
      "ents": 807,
      "Ġind": 808,
      "ind": 809,
      "éĢĤ": 810,
      "Ġtechn": 811,
      "ress": 812,
      "æĥħ": 813,
      "éĹ®é¢ĺ": 814,
      "Ġuse": 815,
      "ï¼Ł": 816,
      "Ġincl": 817,
      "Ġspe": 818,
      "ich": 819,
      "ps": 820,
      "æľº": 821,
      "Ġthey": 822,
      "ie": 823,
      "Ġhow": 824,
      "Ġwork": 825,
      "ä¸ļ": 826,
      "ç´": 827,
      "Ġimpro": 828,
      "Ġlearn": 829,
      "æĸ°": 830,
      "çĤ¹": 831,
      "Ġcont": 832,
      "ard": 833,
      "çĦ¶": 834,
      "æľ¬": 835,
      "ç³»": 836,
      "ç¡®": 837,
      "è®¾": 838,
      "åħ·": 839,
      "éĢī": 840,
      "èĢħ": 841,
      "éħ": 842,
      "gh": 843,
      "__": 844,
      "Ġnot": 845,
      "çľ": 846,
      "çĽ¸": 847,
      "Ġprovide": 848,
      "åī": 849,
      "ional": 850,
      "Ġens": 851,
      "ä¸İ": 852,
      "è´¨": 853,
      "ential": 854,
      "ç»ı": 855,
      "å¿ĥ": 856,
      "ang": 857,
      "æŃ¤": 858,
      "ĠG": 859,
      "end": 860,
      "Ġpo": 861,
      "è¿Ľè¡Į": 862,
      "Ġ2": 863,
      "Ġ-": 864,
      "ice": 865,
      "Ġway": 866,
      "å·±": 867,
      "ime": 868,
      "ç½": 869,
      "èĩªå·±": 870,
      "Ġun": 871,
      "bot": 872,
      "Ġinclud": 873,
      "ated": 874,
      "æ°´": 875,
      "éķ": 876,
      "ĠL": 877,
      "æĮģ": 878,
      "ä»£": 879,
      "é¡": 880,
      "æīĢ": 881,
      "çĿ": 882,
      "pport": 883,
      "ood": 884,
      "ike": 885,
      "ru": 886,
      "Ġcomm": 887,
      "ä¿¡": 888,
      "çŁ": 889,
      "çĶµ": 890,
      "Ġwas": 891,
      "low": 892,
      "erv": 893,
      "åĮħ": 894,
      "ĠĠĠĠĠĠĠĠ": 895,
      "Ġwhe": 896,
      "dit": 897,
      "Ġwhich": 898,
      "Ġcomp": 899,
      "éª": 900,
      "ore": 901,
      "ç¾": 902,
      "Ġ=": 903,
      "çī¹": 904,
      "iff": 905,
      "ert": 906,
      "æģ": 907,
      "rit": 908,
      "Ġrec": 909,
      "åĨħ": 910,
      "æĺİ": 911,
      "ors": 912,
      "Ġpat": 913,
      "----": 914,
      "æŁ": 915,
      "Ġapp": 916,
      "ns": 917,
      "åĬ¡": 918,
      "aly": 919,
      "ace": 920,
      "æ´»": 921,
      "ä¾Ľ": 922,
      "av": 923,
      "ä¸»": 924,
      "ĠN": 925,
      "Ġpers": 926,
      "çĥ": 927,
      "è¯¥": 928,
      "Ġmy": 929,
      "ç©": 930,
      "eri": 931,
      "è®©": 932,
      "æĬĢ": 933,
      "éķ¿": 934,
      "ack": 935,
      "Ġdiff": 936,
      "Ġthis": 937,
      "åĿ": 938,
      "Ġensure": 939,
      "å½ĵ": 940,
      "Ġout": 941,
      "Ġcl": 942,
      "Ġk": 943,
      "ĠIt": 944,
      "é¦": 945,
      "ount": 946,
      "çİ¯": 947,
      "åĬ©": 948,
      "Ġtechnolo": 949,
      "Ġthese": 950,
      "ful": 951,
      "ĠY": 952,
      "éļ": 953,
      "æ·": 954,
      "ä¸ĢäºĽ": 955,
      "Ġsoc": 956,
      "å¼Ģ": 957,
      "å¤©": 958,
      "Ġev": 959,
      "Ġredu": 960,
      "Ġthem": 961,
      "Ġ(": 962,
      "éĥ½": 963,
      "æĪ·": 964,
      "è·": 965,
      "åľº": 966,
      "æ°Ķ": 967,
      "è¯Ń": 968,
      "éĢļè¿ĩ": 969,
      "å±ķ": 970,
      "ĠO": 971,
      "Ġco": 972,
      "å½±": 973,
      "ç¬": 974,
      "Ġanaly": 975,
      "æ¯Ķ": 976,
      "åħ¨": 977,
      "Ġimprove": 978,
      "ç»ĵ": 979,
      "å¹´": 980,
      "çķ": 981,
      "çĿĢ": 982,
      "Ġqu": 983,
      "Ġhum": 984,
      "ç®Ĺ": 985,
      "é£Ł": 986,
      "ility": 987,
      "Ġsystems": 988,
      "åıĺ": 989,
      "ail": 990,
      "ç¼": 991,
      "çł": 992,
      "è¿Ļä¸ª": 993,
      "æıĲä¾Ľ": 994,
      "ase": 995,
      "åŀ": 996,
      "ments": 997,
      "Ġpot": 998,
      "Ġany": 999,
      "ä½Ĩ": 1000,
      "Ġcons": 1001,
      "æł¼": 1002,
      "Ġar": 1003,
      "æľ¯": 1004,
      "éĿŀ": 1005,
      "Ġdo": 1006,
      "Ġmay": 1007,
      "æĭ©": 1008,
      "ue": 1009,
      "éĢīæĭ©": 1010,
      "ry": 1011,
      "éĥ": 1012,
      "Ġlike": 1013,
      "ong": 1014,
      "èģ": 1015,
      "``": 1016,
      "ile": 1017,
      "æ±Ĥ": 1018,
      "Ġnew": 1019,
      "ient": 1020,
      "Ġimpact": 1021,
      "è¿ĺ": 1022,
      "æ³¨": 1023,
      "ä¹Ī": 1024,
      "çĽ®": 1025,
      "âĢľ": 1026,
      "âĢĿ": 1027,
      "ef": 1028,
      "ä¾ĭ": 1029,
      "Ġpotential": 1030,
      "åı¯èĥ½": 1031,
      "ok": 1032,
      "Ġtrans": 1033,
      "Ġact": 1034,
      "ï¼ī": 1035,
      "Ġspec": 1036,
      "Ġwill": 1037,
      "æ¶": 1038,
      "äº¤": 1039,
      "ize": 1040,
      "ç¾İ": 1041,
      "å¸Ĥ": 1042,
      "Ġstud": 1043,
      "pon": 1044,
      "èº": 1045,
      "ä¸įåĲĮ": 1046,
      "å¾Ī": 1047,
      "one": 1048,
      "åıĬ": 1049,
      "å¦Ĥæŀľ": 1050,
      "çĲĥ": 1051,
      "ange": 1052,
      "Ġneed": 1053,
      "å¤ĸ": 1054,
      "ety": 1055,
      "aking": 1056,
      "è¯·": 1057,
      "ater": 1058,
      "Ġperson": 1059,
      "ident": 1060,
      "Ġso": 1061,
      "Ġmake": 1062,
      "å¹³": 1063,
      "å¤Ł": 1064,
      "èº«": 1065,
      "ï¼Ī": 1066,
      "Ġinform": 1067,
      "æ¡": 1068,
      "äºĭ": 1069,
      "åıĹ": 1070,
      "ased": 1071,
      "ild": 1072,
      "Ġoff": 1073,
      "Ġthere": 1074,
      "cis": 1075,
      "è¢": 1076,
      "éĥ¨": 1077,
      "æ¯ı": 1078,
      "ract": 1079,
      "ĠIn": 1080,
      "ass": 1081,
      "Ġlearning": 1082,
      "åĸ": 1083,
      "å½¢": 1084,
      "ire": 1085,
      "ä»İ": 1086,
      "ĠCan": 1087,
      "bots": 1088,
      "èĻ": 1089,
      "å¸®": 1090,
      "Ġdes": 1091,
      "cess": 1092,
      "Ġpe": 1093,
      "Ġwho": 1094,
      "ify": 1095,
      "ä¹ł": 1096,
      "æľŁ": 1097,
      "Ġexperi": 1098,
      "éĤ": 1099,
      "Ġsc": 1100,
      "ep": 1101,
      "ä½ķ": 1102,
      "Ġtime": 1103,
      "éĿŀå¸¸": 1104,
      "æĭ¬": 1105,
      "åķ": 1106,
      "ä»¥ä¸ĭ": 1107,
      "éģĵ": 1108,
      "Ġcommun": 1109,
      "Ġcould": 1110,
      "ap": 1111,
      "èĲ": 1112,
      "è°ĥ": 1113,
      "lic": 1114,
      "duct": 1115,
      "Ġits": 1116,
      "cy": 1117,
      "è¯´": 1118,
      "Ġmed": 1119,
      "Ġcol": 1120,
      "ular": 1121,
      "éĩįè¦ģ": 1122,
      "Ġsp": 1123,
      "åĪ©": 1124,
      "èµ·": 1125,
      "Ġprovid": 1126,
      "ices": 1127,
      "åĻ": 1128,
      "æĸĻ": 1129,
      "Ġimport": 1130,
      "ural": 1131,
      "åŃĹ": 1132,
      "Ġund": 1133,
      "int": 1134,
      "Ġover": 1135,
      "åı¸": 1136,
      "æł¹": 1137,
      "é¥": 1138,
      "ples": 1139,
      "ä»ĸä»¬": 1140,
      "gra": 1141,
      "uring": 1142,
      "åįķ": 1143,
      "now": 1144,
      "è¿ĻäºĽ": 1145,
      "åīį": 1146,
      "å®ī": 1147,
      "Ġpr": 1148,
      "åĮħæĭ¬": 1149,
      "ç»Ļ": 1150,
      "ä½į": 1151,
      "å§": 1152,
      "ç´ł": 1153,
      "Ġadd": 1154,
      "åĳĺ": 1155,
      "Ġident": 1156,
      "åŀĭ": 1157,
      "å¼º": 1158,
      "æĺ¯ä¸Ģ": 1159,
      "ip": 1160,
      "gor": 1161,
      "Ġsupport": 1162,
      "ne": 1163,
      "Ġdiffere": 1164,
      "åħĥ": 1165,
      "Ġass": 1166,
      "åĨ³": 1167,
      "éĽ": 1168,
      "åĲį": 1169,
      "Ġgo": 1170,
      "Ġtechnology": 1171,
      "æĢ»": 1172,
      "è®®": 1173,
      "Ġinter": 1174,
      "Ġinv": 1175,
      "Ġour": 1176,
      "æķĪ": 1177,
      "ustom": 1178,
      "Ġrel": 1179,
      "ife": 1180,
      "åĻ¨": 1181,
      "ings": 1182,
      "ä»·": 1183,
      "Ġpart": 1184,
      "è¢«": 1185,
      "æīĭ": 1186,
      "ary": 1187,
      "Ġrespon": 1188,
      "ĊĠĠĠ": 1189,
      "å¥½çļĦ": 1190,
      "ative": 1191,
      "å¸®åĬ©": 1192,
      "ĠHere": 1193,
      "ç»Ł": 1194,
      "æĶ¾": 1195,
      "çģ": 1196,
      "Ġbut": 1197,
      "æģ¯": 1198,
      "æŃ£": 1199,
      "ark": 1200,
      "åħ¬åı¸": 1201,
      "ory": 1202,
      "å¢ĥ": 1203,
      "lect": 1204,
      "éŁ": 1205,
      "æĥ³": 1206,
      "é£İ": 1207,
      "ating": 1208,
      "Ġam": 1209,
      "its": 1210,
      "æ»": 1211,
      "gorith": 1212,
      "åĵį": 1213,
      "ures": 1214,
      "ĠHow": 1215,
      "Ġeffect": 1216,
      "Ġshould": 1217,
      "Ġper": 1218,
      "è±": 1219,
      "ç²": 1220,
      "ict": 1221,
      "Ġalgorith": 1222,
      "uc": 1223,
      "rough": 1224,
      "ä»»": 1225,
      "ä»¶": 1226,
      "Ġbet": 1227,
      "ia": 1228,
      "Ġanalyz": 1229,
      "æł¹æį®": 1230,
      "ized": 1231,
      "æµģ": 1232,
      "è§Ĥ": 1233,
      "The": 1234,
      "è£": 1235,
      "æłĩ": 1236,
      "iron": 1237,
      "Ġcustom": 1238,
      "Ġreg": 1239,
      "Ġpersonal": 1240,
      "èĥ½å¤Ł": 1241,
      "ics": 1242,
      "ivid": 1243,
      "çĪ": 1244,
      "èµĦ": 1245,
      "æŃ¥": 1246,
      "å®¹": 1247,
      "åĪĽ": 1248,
      "èĪ": 1249,
      "ä¹Ĳ": 1250,
      "å¯¼": 1251,
      "gan": 1252,
      "ĠU": 1253,
      "èĬĤ": 1254,
      "Ġall": 1255,
      "ens": 1256,
      "ame": 1257,
      "ness": 1258,
      "Ġup": 1259,
      "èĢĥ": 1260,
      "elf": 1261,
      "åĢ¼": 1262,
      "å°ĳ": 1263,
      "æľį": 1264,
      "ari": 1265,
      "thical": 1266,
      "viron": 1267,
      "èĥ": 1268,
      "Ġsign": 1269,
      "ord": 1270,
      "éĩĮ": 1271,
      "ound": 1272,
      "ople": 1273,
      "åŁº": 1274,
      "Ġinformation": 1275,
      "Ġidentify": 1276,
      "åĽŀ": 1277,
      "Ġcre": 1278,
      "éŁ³": 1279,
      "ible": 1280,
      "ub": 1281,
      "è¿Ĳ": 1282,
      "Ġlead": 1283,
      "æ¸¸": 1284,
      "æ¬¡": 1285,
      "åĨĻ": 1286,
      "éĤ£": 1287,
      "get": 1288,
      "èį": 1289,
      "Ġexample": 1290,
      "ä¼ĺ": 1291,
      "å½±åĵį": 1292,
      "ish": 1293,
      "xt": 1294,
      "æº": 1295,
      "éªĮ": 1296,
      "ob": 1297,
      "å®¢": 1298,
      "å¤ĩ": 1299,
      "åģ¥": 1300,
      "è½¦": 1301,
      "ç¤¾": 1302,
      "ividual": 1303,
      "ered": 1304,
      "les": 1305,
      "Ġenviron": 1306,
      "Ġpeople": 1307,
      "æĺŁ": 1308,
      "çĸ": 1309,
      "çĭ": 1310,
      "Ġdet": 1311,
      "æĹł": 1312,
      "Ġif": 1313,
      "ose": 1314,
      "ite": 1315,
      "ĠJ": 1316,
      "å¢ŀ": 1317,
      "éĴ": 1318,
      "åĲĮæĹ¶": 1319,
      "è¿°": 1320,
      "æĸ¹å¼ı": 1321,
      "Ġ3": 1322,
      "åĽ½": 1323,
      "é»": 1324,
      "å¤Ħ": 1325,
      "Ġexamples": 1326,
      "æ®": 1327,
      "Ġinto": 1328,
      "æĮĩ": 1329,
      "Ġhuman": 1330,
      "åĲĳ": 1331,
      "ç¤º": 1332,
      "æķ°æį®": 1333,
      "èı": 1334,
      "çİ¯å¢ĥ": 1335,
      "als": 1336,
      "erst": 1337,
      "Ġethical": 1338,
      "ç»Ħ": 1339,
      "ä¼ł": 1340,
      "Ġdifferent": 1341,
      "Ġknow": 1342,
      "åºı": 1343,
      "Ġindividual": 1344,
      "æıĲé«ĺ": 1345,
      "round": 1346,
      "å°±": 1347,
      "åıĸ": 1348,
      "åŃĺ": 1349,
      "ä¸¤": 1350,
      "çŁ¥": 1351,
      "ources": 1352,
      "ck": 1353,
      "å£": 1354,
      "ines": 1355,
      "è¾¾": 1356,
      "Ġmany": 1357,
      "æķ´": 1358,
      "æł·": 1359,
      "ditional": 1360,
      "omm": 1361,
      "çĶ±": 1362,
      "éĢł": 1363,
      "å®ĥä»¬": 1364,
      "ues": 1365,
      "Ġment": 1366,
      "Ġopt": 1367,
      "Ġimportant": 1368,
      "Ġloc": 1369,
      "ph": 1370,
      "Ġprocess": 1371,
      "Ġalgorithms": 1372,
      "è®¾è®¡": 1373,
      "Ġsocial": 1374,
      "very": 1375,
      "åĪĻ": 1376,
      "ä¾ĭå¦Ĥ": 1377,
      "è®¤": 1378,
      "Ġaut": 1379,
      "Ġserv": 1380,
      "gg": 1381,
      "äº§åĵģ": 1382,
      "è§Ħ": 1383,
      "vel": 1384,
      "çľĭ": 1385,
      "æĸ¹æ³ķ": 1386,
      "Ġben": 1387,
      "åĽłæŃ¤": 1388,
      "care": 1389,
      "per": 1390,
      "åĬŁ": 1391,
      "å»ºè®®": 1392,
      "Ġpos": 1393,
      "æ¤": 1394,
      "åĮº": 1395,
      "we": 1396,
      "iqu": 1397,
      "Ġreal": 1398,
      "æĹ¥": 1399,
      "Ġreduce": 1400,
      "af": 1401,
      "angu": 1402,
      "Ġsk": 1403,
      "Ġed": 1404,
      "erstand": 1405,
      "åĨµ": 1406,
      "mot": 1407,
      "åħĪ": 1408,
      "ç¥": 1409,
      "åºĶè¯¥": 1410,
      "Ġthrough": 1411,
      "Ġconc": 1412,
      "åıĳå±ķ": 1413,
      "è¯ķ": 1414,
      "æ¡Ī": 1415,
      "Ġenvironment": 1416,
      "åı£": 1417,
      "ĠWh": 1418,
      "Ġadv": 1419,
      "åĪ«": 1420,
      "Ġbenef": 1421,
      "æ¸ħ": 1422,
      "åĳ³": 1423,
      "åħī": 1424,
      "Ġdevelopment": 1425,
      "eng": 1426,
      "å¦Ĥä½ķ": 1427,
      "ç®¡": 1428,
      "ivers": 1429,
      "åĲĦ": 1430,
      "Ġris": 1431,
      "row": 1432,
      "ergy": 1433,
      "è®¡ç®Ĺ": 1434,
      "ä¿¡æģ¯": 1435,
      "Ġproduct": 1436,
      "è¾ĥ": 1437,
      "è®º": 1438,
      "èĩªå·±çļĦ": 1439,
      "æĬ¤": 1440,
      "åıį": 1441,
      "åħ¶ä»ĸ": 1442,
      "åĪĹ": 1443,
      "ç»Ĩ": 1444,
      "ç©º": 1445,
      "Ġgreat": 1446,
      "ear": 1447,
      "æºĲ": 1448,
      "ject": 1449,
      "çĶŁæ´»": 1450,
      "ä¸ŃçļĦ": 1451,
      "Ġunderstand": 1452,
      "èĭ": 1453,
      "Ġprogra": 1454,
      "çĬ": 1455,
      "Ġwrit": 1456,
      "éĩĳ": 1457,
      "Ġincluding": 1458,
      "Ġaccess": 1459,
      "ĠĠĠĠĠĠĠ": 1460,
      "è¯Ĩ": 1461,
      "ç¦": 1462,
      "og": 1463,
      "è£ħ": 1464,
      "Ġart": 1465,
      "Ġincre": 1466,
      "Ġph": 1467,
      "æĸ¹éĿ¢": 1468,
      "Ġpract": 1469,
      "Ġusing": 1470,
      "é¡¹": 1471,
      "æİ¥": 1472,
      "Ġways": 1473,
      "Ġlangu": 1474,
      "æĶ¯": 1475,
      "Ġchall": 1476,
      "åİ»": 1477,
      "____": 1478,
      "imate": 1479,
      "æĸŃ": 1480,
      "è¨": 1481,
      "Ġwell": 1482,
      "ll": 1483,
      "Ġpol": 1484,
      "æĢģ": 1485,
      "Ġra": 1486,
      "åİŁ": 1487,
      "ber": 1488,
      "ĠFor": 1489,
      "è¨Ģ": 1490,
      "Ġgen": 1491,
      "ç«ĭ": 1492,
      "éħį": 1493,
      "æ·±": 1494,
      "te": 1495,
      "ä¸ī": 1496,
      "ç§ĳ": 1497,
      "çº¿": 1498,
      "çħ": 1499,
      "æ¼": 1500,
      "åķĨ": 1501,
      "æĿĲ": 1502,
      "Ġsignific": 1503,
      "Ġgu": 1504,
      "Ġdecis": 1505,
      "Ġtrain": 1506,
      "Ġag": 1507,
      "Ġcreat": 1508,
      "å®Į": 1509,
      "æĹ¶éĹ´": 1510,
      "Ġone": 1511,
      "èĦ": 1512,
      "Ġnat": 1513,
      "åŃ¦ä¹ł": 1514,
      "çļĦæķ": 1515,
      "Ġwhen": 1516,
      "ced": 1517,
      "Ġbi": 1518,
      "èİ": 1519,
      "æĽ´åĬł": 1520,
      "ives": 1521,
      "å·¥ä½ľ": 1522,
      "port": 1523,
      "ving": 1524,
      "Ġbeen": 1525,
      "æĻº": 1526,
      "Ġlife": 1527,
      "å¼ķ": 1528,
      "arm": 1529,
      "çİĩ": 1530,
      "çĶ¨æĪ·": 1531,
      "ä¹ī": 1532,
      "ä»½": 1533,
      "è¯Ŀ": 1534,
      "iness": 1535,
      "com": 1536,
      "åº·": 1537,
      "åĩı": 1538,
      "ä»Ģ": 1539,
      "è¾ĵ": 1540,
      "Ġvari": 1541,
      "Ġmod": 1542,
      "ä»Ģä¹Ī": 1543,
      "Ġenergy": 1544,
      "æĬĢæľ¯": 1545,
      "ertain": 1546,
      "mm": 1547,
      "verall": 1548,
      "con": 1549,
      "åĪĴ": 1550,
      "Ġorgan": 1551,
      "Ġrobots": 1552,
      "æİ¨": 1553,
      "ants": 1554,
      "åĩĨ": 1555,
      "ds": 1556,
      "æŀģ": 1557,
      "çĻ": 1558,
      "Ġrequ": 1559,
      "Ġess": 1560,
      "ç®Ģ": 1561,
      "ustain": 1562,
      "æ¨": 1563,
      "Ġstr": 1564,
      "cing": 1565,
      "ability": 1566,
      "ree": 1567,
      "Ġeduc": 1568,
      "åİĨ": 1569,
      "Ġcreate": 1570,
      "åģ¥åº·": 1571,
      "Ġdesign": 1572,
      "ips": 1573,
      "åģļ": 1574,
      "èĬ±": 1575,
      "ink": 1576,
      "èıľ": 1577,
      "æī¾": 1578,
      "æ®µ": 1579,
      "ĠV": 1580,
      "æµĭ": 1581,
      "ĠBy": 1582,
      "åĶ": 1583,
      "é¦ĸ": 1584,
      "Ġwhere": 1585,
      "è¯į": 1586,
      "Ġdisc": 1587,
      "äºĨè§£": 1588,
      "ric": 1589,
      "ä¸Ķ": 1590,
      "è¶³": 1591,
      "æĺ¯ä¸Ģä¸ª": 1592,
      "arch": 1593,
      "ç§¯": 1594,
      "Ġ5": 1595,
      "å¸¦": 1596,
      "Ġwhile": 1597,
      "Ġsignificant": 1598,
      "çłģ": 1599,
      "ĠCh": 1600,
      "æĪ¿": 1601,
      "Ġbeing": 1602,
      "Ġlanguage": 1603,
      "itive": 1604,
      "Ġanalyze": 1605,
      "ĠSt": 1606,
      "20": 1607,
      "æĻ¯": 1608,
      "èĮ": 1609,
      "rib": 1610,
      "æ¨¡": 1611,
      "è´¹": 1612,
      "'t": 1613,
      "Ġhealthcare": 1614,
      "Ġexperience": 1615,
      "ä¸ªäºº": 1616,
      "ays": 1617,
      "è±¡": 1618,
      "plo": 1619,
      "Ġwould": 1620,
      "èĻĳ": 1621,
      "æĶ¶": 1622,
      "é¢Ħ": 1623,
      "é¢Ĩ": 1624,
      "ä¿ĿæĮģ": 1625,
      "ences": 1626,
      "åıª": 1627,
      "èĩ´": 1628,
      "æĪı": 1629,
      "Ġmental": 1630,
      "Ġfew": 1631,
      "ates": 1632,
      "è¿ĩç¨ĭ": 1633,
      "å®īåħ¨": 1634,
      "Ġsustain": 1635,
      "Ġwere": 1636,
      "å¤ª": 1637,
      "çĮ": 1638,
      "Ġspecific": 1639,
      "Ġworld": 1640,
      "çŃĶ": 1641,
      "```": 1642,
      "Ġtake": 1643,
      "åħ»": 1644,
      "éĢŁ": 1645,
      "ever": 1646,
      "SS": 1647,
      "éĶĢ": 1648,
      "Ġbo": 1649,
      "hes": 1650,
      "Ġmus": 1651,
      "æľįåĬ¡": 1652,
      "è§Ĵ": 1653,
      "ten": 1654,
      "æŀĲ": 1655,
      "pow": 1656,
      "dict": 1657,
      "ĠAs": 1658,
      "vent": 1659,
      "çļĦæĹ": 1660,
      "10": 1661,
      "ĸçķ": 1662,
      "Ġprot": 1663,
      "ç½®": 1664,
      "Ġhigh": 1665,
      "Ġbus": 1666,
      "Ġindust": 1667,
      "åĲ¦": 1668,
      "cial": 1669,
      "äººä»¬": 1670,
      "åĳĬ": 1671,
      "ade": 1672,
      "æĶ¹": 1673,
      "çĹ": 1674,
      "Ġhad": 1675,
      "Ġher": 1676,
      "Ġjust": 1677,
      "ï¼Ľ": 1678,
      "è´Ń": 1679,
      "ç¬¬": 1680,
      "éĵ": 1681,
      "Ġwater": 1682,
      "Ġfood": 1683,
      "éĺŁ": 1684,
      "aus": 1685,
      "Ġchalleng": 1686,
      "åħį": 1687,
      "æĸĩåĮĸ": 1688,
      "Ġmost": 1689,
      "é¸": 1690,
      "ç½ĳ": 1691,
      "çĽ´": 1692,
      "Ġsm": 1693,
      "Ġactiv": 1694,
      "ploy": 1695,
      "Overall": 1696,
      "å¿«": 1697,
      "Ġ4": 1698,
      "ruct": 1699,
      "Ġindividuals": 1700,
      "å§ĭ": 1701,
      "gies": 1702,
      "æŁ¥": 1703,
      "çĪ±": 1704,
      "iety": 1705,
      "åĪĨæŀĲ": 1706,
      "è§Ĩ": 1707,
      "æ¸©": 1708,
      "ç»´": 1709,
      "olut": 1710,
      "åŁŁ": 1711,
      "ommend": 1712,
      "Ġcomple": 1713,
      "æķĻ": 1714,
      "Ġbu": 1715,
      "Ġeducation": 1716,
      "ather": 1717,
      "ting": 1718,
      "Ġfind": 1719,
      "æ²¡": 1720,
      "ĠThese": 1721,
      "Ġhis": 1722,
      "ä¹ĭéĹ´": 1723,
      "Ġeffective": 1724,
      "Ġatt": 1725,
      "Ġrese": 1726,
      "èĥ½åĬĽ": 1727,
      "åŁİ": 1728,
      "Ġallow": 1729,
      "Ġav": 1730,
      "Ġpromot": 1731,
      "æĻºèĥ½": 1732,
      "æ»¡": 1733,
      "åħ±": 1734,
      "iew": 1735,
      "come": 1736,
      "ç³»ç»Ł": 1737,
      "Ġrespons": 1738,
      "äºĴ": 1739,
      "Ġcult": 1740,
      "powered": 1741,
      "Ġrecommend": 1742,
      "èĲ¥": 1743,
      "OSS": 1744,
      "Ġchange": 1745,
      "è¯ģ": 1746,
      "Ġwhat": 1747,
      "ved": 1748,
      "In": 1749,
      "æİĴ": 1750,
      "è§£åĨ³": 1751,
      "ici": 1752,
      "Ġfeel": 1753,
      "æľĪ": 1754,
      "ä»¥åıĬ": 1755,
      "Ġsee": 1756,
      "åŃ©": 1757,
      "bs": 1758,
      "Ġsur": 1759,
      "æ£": 1760,
      "ality": 1761,
      "Ġvis": 1762,
      "ç¡®ä¿Ŀ": 1763,
      "pect": 1764,
      "å®ŀçİ°": 1765,
      "Ġcare": 1766,
      "å¹¿": 1767,
      "ills": 1768,
      "åºŃ": 1769,
      "ases": 1770,
      "å¤į": 1771,
      "åºĶçĶ¨": 1772,
      "çļĦæĥ": 1773,
      "ards": 1774,
      "Ġaddress": 1775,
      "Ġcompan": 1776,
      "Ġinvol": 1777,
      "Ġcustomer": 1778,
      "åĽłä¸º": 1779,
      "Ġstudents": 1780,
      "Ġins": 1781,
      "æ³¨æĦı": 1782,
      "æŀĦ": 1783,
      "æ¬¢": 1784,
      "ĠYes": 1785,
      "æµ·": 1786,
      "åıĤ": 1787,
      "èĩªçĦ¶": 1788,
      "é©": 1789,
      "wn": 1790,
      "æĺĵ": 1791,
      "çĬ¶": 1792,
      "ren": 1793,
      "Ġtreat": 1794,
      "Ġbenefits": 1795,
      "ĊĠĠĠĠĠĠĠ": 1796,
      "å¯¹äºİ": 1797,
      "æĢĿ": 1798,
      "ĠK": 1799,
      "ider": 1800,
      "Ġke": 1801,
      "åĸľ": 1802,
      "Ġeng": 1803,
      "ĠMOSS": 1804,
      "Ġpop": 1805,
      "ost": 1806,
      "pare": 1807,
      "Ġmon": 1808,
      "æ¬¾": 1809,
      "Ġemot": 1810,
      "Ġac": 1811,
      "ç¼ĸ": 1812,
      "fore": 1813,
      "åı¥": 1814,
      "Ġval": 1815,
      "ily": 1816,
      "Ġiss": 1817,
      "èĤī": 1818,
      "èĩ³": 1819,
      "æ¸¸æĪı": 1820,
      "ween": 1821,
      "Ġinclude": 1822,
      "Ġprotect": 1823,
      "åħ³ç³»": 1824,
      "ĠThey": 1825,
      "éĻ©": 1826,
      "Ġsever": 1827,
      "Ġthan": 1828,
      "éľĢæ±Ĥ": 1829,
      "ç»ĥ": 1830,
      "iss": 1831,
      "ys": 1832,
      "Ġjob": 1833,
      "éĺ³": 1834,
      "æĲ": 1835,
      "Ġbetween": 1836,
      "Ġmach": 1837,
      "--------": 1838,
      "èĢĥèĻĳ": 1839,
      "è´¨éĩı": 1840,
      "Ġbusiness": 1841,
      "wor": 1842,
      "ick": 1843,
      "eg": 1844,
      "åħħ": 1845,
      "ç¯": 1846,
      "æĿ¡": 1847,
      "ner": 1848,
      "apt": 1849,
      "Ġappro": 1850,
      "Ġplay": 1851,
      "æ²¡æľī": 1852,
      "¤Ĳ": 1853,
      "æľª": 1854,
      "æĪĺ": 1855,
      "å®¶åºŃ": 1856,
      "ãĢĭ": 1857,
      "ency": 1858,
      "ãĢĬ": 1859,
      "Ġproviding": 1860,
      "Ġresources": 1861,
      "âĢĻ": 1862,
      "Ġassist": 1863,
      "Ġnatural": 1864,
      "è¯Ħ": 1865,
      "ä¾¿": 1866,
      "Ġsaf": 1867,
      "åħ·æľī": 1868,
      "è°¢": 1869,
      "çĥŃ": 1870,
      "eth": 1871,
      "old": 1872,
      "Ġperform": 1873,
      "ss": 1874,
      "Ġseveral": 1875,
      "é¤Ĳ": 1876,
      "Ġeach": 1877,
      "è½¬": 1878,
      "ci": 1879,
      "Ġty": 1880,
      "Ġpub": 1881,
      "æ´»åĬ¨": 1882,
      "ocus": 1883,
      "çīĮ": 1884,
      "è¶Ĭ": 1885,
      "åĽ¢": 1886,
      "è½»": 1887,
      "è¯Ńè¨Ģ": 1888,
      "Ġareas": 1889,
      "éĩĩ": 1890,
      "ft": 1891,
      "riend": 1892,
      "å·²": 1893,
      "å¸Ĥåľº": 1894,
      "ition": 1895,
      "ients": 1896,
      "ç®¡çĲĨ": 1897,
      "è®¸": 1898,
      "äººç±»": 1899,
      "èº«ä½ĵ": 1900,
      "ique": 1901,
      "Ġpartic": 1902,
      "ç»Ń": 1903,
      "agement": 1904,
      "ves": 1905,
      "ç¬¦": 1906,
      "line": 1907,
      "çº¢": 1908,
      "åĲ¸": 1909,
      "Ġpatter": 1910,
      "000": 1911,
      "ç¤¾ä¼ļ": 1912,
      "åĨħå®¹": 1913,
      "Ġorganiz": 1914,
      "ough": 1915,
      "Ġve": 1916,
      "åŃ©åŃĲ": 1917,
      "æĸ½": 1918,
      "æ¤į": 1919,
      "åĩł": 1920,
      "ä½Ĩæĺ¯": 1921,
      "Ġaff": 1922,
      "Ġnum": 1923,
      "lement": 1924,
      "èīº": 1925,
      "èĳ": 1926,
      "Ġcar": 1927,
      "ages": 1928,
      "abor": 1929,
      "æĺ¯ä¸Ģç§į": 1930,
      "Ġinst": 1931,
      "èĽ": 1932,
      "ä¹ĭä¸Ģ": 1933,
      "è·¯": 1934,
      "åį³": 1935,
      "Ġmain": 1936,
      "éļı": 1937,
      "å¿ħ": 1938,
      "ç¨ĭåºı": 1939,
      "éŁ³ä¹Ĳ": 1940,
      "æ²¹": 1941,
      "red": 1942,
      "Ġoffer": 1943,
      "ets": 1944,
      "ç¢": 1945,
      "Ġduring": 1946,
      "çļĦäºº": 1947,
      "æĽ´å¤ļ": 1948,
      "Ġdi": 1949,
      "ĠAd": 1950,
      "ä»£çłģ": 1951,
      "èİ·": 1952,
      "åħĭ": 1953,
      "Ġguid": 1954,
      "ä¸»è¦ģ": 1955,
      "Ġfam": 1956,
      "æİ§": 1957,
      "éĢļå¸¸": 1958,
      "å¤ĦçĲĨ": 1959,
      "urn": 1960,
      "ower": 1961,
      "åĳ½": 1962,
      "æıı": 1963,
      "Ġskills": 1964,
      "Ġtool": 1965,
      "ware": 1966,
      "æĸĩæľ¬": 1967,
      "Ġpatterns": 1968,
      "çĽ®æłĩ": 1969,
      "acy": 1970,
      "æīĵ": 1971,
      "Ġevery": 1972,
      "åŁİå¸Ĥ": 1973,
      "ries": 1974,
      "è¯»": 1975,
      "éģ¿": 1976,
      "çĻ½": 1977,
      "éĢĤåĲĪ": 1978,
      "Ġpatient": 1979,
      "çľŁ": 1980,
      "oth": 1981,
      "å¥¹": 1982,
      "åĶ®": 1983,
      "ä¸Ģç§į": 1984,
      "Ġmade": 1985,
      "ä½İ": 1986,
      "Ġrem": 1987,
      "ise": 1988,
      "æ¶Ī": 1989,
      "åĲ«": 1990,
      "Ġgener": 1991,
      "air": 1992,
      "oy": 1993,
      "ç²¾": 1994,
      "æĥħåĨµ": 1995,
      "Ġexpl": 1996,
      "ights": 1997,
      "è§ģ": 1998,
      "Ġpredict": 1999,
      "ç±³": 2000,
      "æĽ´å¥½": 2001,
      "ä¿®": 2002,
      "Ġclimate": 2003,
      "Ġfocus": 2004,
      "Ġgrow": 2005,
      "å®¢æĪ·": 2006,
      "ä¸įæĸŃ": 2007,
      "itor": 2008,
      "ĠEn": 2009,
      "çº¦": 2010,
      "æĺ¯åĲ¦": 2011,
      "ä»ħ": 2012,
      "æĪĳä»¬çļĦ": 2013,
      "æľĽ": 2014,
      "op": 2015,
      "Ġmaking": 2016,
      "yth": 2017,
      "ccess": 2018,
      "Ġown": 2019,
      "ggest": 2020,
      "Ġtas": 2021,
      "uture": 2022,
      "Ġmodel": 2023,
      "Ġ[": 2024,
      "put": 2025,
      "Ġresearch": 2026,
      "erest": 2027,
      "éļ¾": 2028,
      "iel": 2029,
      "ĠYou": 2030,
      "ational": 2031,
      "Ġcommunic": 2032,
      "ç¥ŀ": 2033,
      "ç©¶": 2034,
      "Ġrest": 2035,
      "æĪĲä¸º": 2036,
      "king": 2037,
      "pr": 2038,
      "åĮ»": 2039,
      "cur": 2040,
      "èĤ²": 2041,
      "ĠHe": 2042,
      "Ġ'": 2043,
      "è¿Ļç§į": 2044,
      "ç¯ĩ": 2045,
      "Ġche": 2046,
      "own": 2047,
      "Ġfin": 2048,
      "éĻħ": 2049,
      "åĪ¶ä½ľ": 2050,
      "Ġsuggest": 2051,
      "å¢ŀåĬł": 2052,
      "Ġmedia": 2053,
      "ribut": 2054,
      "çļĦæĥħ": 2055,
      "åĬłåħ¥": 2056,
      "Ġcle": 2057,
      "åĳ¨": 2058,
      "ç«ł": 2059,
      "Ġthink": 2060,
      "Ġlocal": 2061,
      "pportun": 2062,
      "Ġplan": 2063,
      "Ġeven": 2064,
      "éĽĨ": 2065,
      "å·§": 2066,
      "ax": 2067,
      "Ġchallenges": 2068,
      "Ġcontin": 2069,
      "Ġprof": 2070,
      "Ġconcer": 2071,
      "Ġfuture": 2072,
      "åĬ¿": 2073,
      "Ġref": 2074,
      "èģĶ": 2075,
      "Ġself": 2076,
      "æĪĸèĢħ": 2077,
      "ble": 2078,
      "åĽ´": 2079,
      "è¿ĲåĬ¨": 2080,
      "Ġinf": 2081,
      "éĩĬ": 2082,
      "Ġsustainable": 2083,
      "Ġtext": 2084,
      "Ġgra": 2085,
      "äºĮ": 2086,
      "åĵģçīĮ": 2087,
      "ä¸įåĲĮçļĦ": 2088,
      "led": 2089,
      "çĭ¬": 2090,
      "Ġopportun": 2091,
      "ym": 2092,
      "ĠHowever": 2093,
      "Ġget": 2094,
      "å¯Ĩ": 2095,
      "éĻ¤": 2096,
      "æħ": 2097,
      "éģ¿åħį": 2098,
      "Ġ+": 2099,
      "è§ī": 2100,
      "Ġret": 2101,
      "å¸ĥ": 2102,
      "Ġinterest": 2103,
      "Ġsociety": 2104,
      "ç»ĵæŀľ": 2105,
      "åĲ¬": 2106,
      "é¦ĸåħĪ": 2107,
      "Ġ20": 2108,
      "Ġbre": 2109,
      "è®°": 2110,
      "ons": 2111,
      "è¿ĳ": 2112,
      "å¼Ģå§ĭ": 2113,
      "Ġbuild": 2114,
      "Ġbeh": 2115,
      "'m": 2116,
      "vers": 2117,
      "Ġgood": 2118,
      "çĲĨè§£": 2119,
      "resent": 2120,
      "ç¦»": 2121,
      "åĬŁèĥ½": 2122,
      "Ġeffort": 2123,
      "labor": 2124,
      "ĠWhat": 2125,
      "é»ĳ": 2126,
      "Ġbetter": 2127,
      "Ġread": 2128,
      "å¾ĭ": 2129,
      "èĽĭ": 2130,
      "hed": 2131,
      "ä¹°": 2132,
      "å¯¼èĩ´": 2133,
      "Ġimplement": 2134,
      "ç¿": 2135,
      "äº«": 2136,
      "å¤´": 2137,
      "ense": 2138,
      "Ġlong": 2139,
      "other": 2140,
      "é¥®": 2141,
      "åŃĺåľ¨": 2142,
      "çļĦæĦ": 2143,
      "ä¸Ģä»½": 2144,
      "ython": 2145,
      "ning": 2146,
      "åĩıå°ĳ": 2147,
      "åĢĻ": 2148,
      "ä¸ĵ": 2149,
      "åĲĦç§į": 2150,
      "èħ": 2151,
      "å°½": 2152,
      "åįĩ": 2153,
      "æĬ¥": 2154,
      "Ġpublic": 2155,
      "Ġlar": 2156,
      "ä½łçļĦ": 2157,
      "aut": 2158,
      "é¢ĨåŁŁ": 2159,
      "æļ": 2160,
      "ollow": 2161,
      "èģĮ": 2162,
      "Ġchang": 2163,
      "Ġbest": 2164,
      "hip": 2165,
      "åĨį": 2166,
      "akes": 2167,
      "Ġchat": 2168,
      "ited": 2169,
      "Ġpower": 2170,
      "ä¿ĿæĬ¤": 2171,
      "ä¹¦": 2172,
      "è®¡åĪĴ": 2173,
      "éĩįè¦ģçļĦ": 2174,
      "åıĺåĮĸ": 2175,
      "ilities": 2176,
      "Ġconsider": 2177,
      "æĪĳä»¬åı¯ä»¥": 2178,
      "éĤ£ä¹Ī": 2179,
      "Ġide": 2180,
      "æ¼Ķ": 2181,
      "aging": 2182,
      "Ġbased": 2183,
      "å®Ŀ": 2184,
      "Ġrange": 2185,
      "Ġresult": 2186,
      "Ġmem": 2187,
      "çħ§": 2188,
      "Ġlevel": 2189,
      "cou": 2190,
      "Ġbr": 2191,
      "ä¼ģ": 2192,
      "å»ºç«ĭ": 2193,
      "Ġunique": 2194,
      "è®Ń": 2195,
      "Ġmark": 2196,
      "è®¸å¤ļ": 2197,
      "è¡Įä¸º": 2198,
      "Ķç©¶": 2199,
      "çļĦæĬ": 2200,
      "Ġset": 2201,
      "éª¤": 2202,
      "Ġhist": 2203,
      "Ġrev": 2204,
      "Ġaround": 2205,
      "ts": 2206,
      "åħ¶ä¸Ń": 2207,
      "ï¼ģ": 2208,
      "æııè¿°": 2209,
      "æľĢåĲİ": 2210,
      "Ġsim": 2211,
      "nect": 2212,
      "åĽŀçŃĶ": 2213,
      "éĺ²": 2214,
      "èī¯": 2215,
      "åĪ°äºĨ": 2216,
      "ä¸ĸçķ": 2217,
      "æĸ¹æ¡Ī": 2218,
      "æĿĲæĸĻ": 2219,
      "ä¸ĸçķĮ": 2220,
      "æĽ´å¥½åľ°": 2221,
      "ä¸¤ä¸ª": 2222,
      "Ġemploy": 2223,
      "Ġtry": 2224,
      "æĵ": 2225,
      "Ġback": 2226,
      "åĪĩ": 2227,
      "Ġsuccess": 2228,
      "Ġdecisions": 2229,
      "Ġthose": 2230,
      "å¯Į": 2231,
      "Ġfact": 2232,
      "æİ¢": 2233,
      "è¶£": 2234,
      "Ġpractices": 2235,
      "åĲĹ": 2236,
      "æīį": 2237,
      "çİ©": 2238,
      "ption": 2239,
      "æĸĩç«ł": 2240,
      "Ġfeat": 2241,
      "Ġprevent": 2242,
      "Ġwriting": 2243,
      "çļĦæĢ": 2244,
      "Ġno": 2245,
      "ä»ĭ": 2246,
      "éĹ¨": 2247,
      "Ġdel": 2248,
      "æĴ": 2249,
      "Ġoptim": 2250,
      "ination": 2251,
      "ĠĊ": 2252,
      "usion": 2253,
      "Ġaccount": 2254,
      "ling": 2255,
      "ath": 2256,
      "Ġdivers": 2257,
      ".\"": 2258,
      "èĭ±": 2259,
      "ä¼ģä¸ļ": 2260,
      "Ġgrou": 2261,
      "åľ°çĲĥ": 2262,
      "å¤±": 2263,
      "Ġpersonalized": 2264,
      "Ġåľ¨": 2265,
      "è¡¨è¾¾": 2266,
      "curity": 2267,
      "Ġfollow": 2268,
      "äº§çĶŁ": 2269,
      "Ġear": 2270,
      "åİĭ": 2271,
      "vern": 2272,
      "Ġissues": 2273,
      "åĿĩ": 2274,
      "Ġdr": 2275,
      "é²": 2276,
      "iving": 2277,
      "Ġtraining": 2278,
      "Ġrisk": 2279,
      "åĩ½": 2280,
      "åı²": 2281,
      "æĳ": 2282,
      "çļĦæĹ¶": 2283,
      "ogn": 2284,
      "Ġrequire": 2285,
      "Ġenvironmental": 2286,
      "back": 2287,
      "éĶ®": 2288,
      "çĸĹ": 2289,
      "Ġinteract": 2290,
      "åĽ¢éĺŁ": 2291,
      "æ¯ıä¸ª": 2292,
      "çĦ¶åĲİ": 2293,
      "ĠPro": 2294,
      "Ġdist": 2295,
      "çĶ¨äºİ": 2296,
      "è®¤ä¸º": 2297,
      "åĩ½æķ°": 2298,
      "Ġsent": 2299,
      "ĊĠĠĠĠĠĠĠĠ": 2300,
      "Ġreducing": 2301,
      "å¹²": 2302,
      "Ġrep": 2303,
      "Ġcaus": 2304,
      "Ġmusic": 2305,
      "çª": 2306,
      "Ġmonitor": 2307,
      "Ġform": 2308,
      "é¢ľ": 2309,
      "çĹħ": 2310,
      "é¦Ļ": 2311,
      "Ġoften": 2312,
      "åı¯èĥ½ä¼ļ": 2313,
      "åĳĺå·¥": 2314,
      "Ġhand": 2315,
      "æĬķ": 2316,
      "Ġneeds": 2317,
      "æŃ¤å¤ĸ": 2318,
      "åıĭ": 2319,
      "ivity": 2320,
      "Ġactivities": 2321,
      "åĸľæ¬¢": 2322,
      "Ġpur": 2323,
      "ĠRe": 2324,
      "ian": 2325,
      "self": 2326,
      "åĬ¨çī©": 2327,
      "comes": 2328,
      "å©": 2329,
      "Ġpriv": 2330,
      "az": 2331,
      "Ġrelations": 2332,
      "Ġmachine": 2333,
      "çļĦæ°": 2334,
      "ä»·æł¼": 2335,
      "ä»·åĢ¼": 2336,
      "ç´¢": 2337,
      "Ġfeed": 2338,
      "ä¸Ģä¸ĭ": 2339,
      "Ġteam": 2340,
      "Ġindustry": 2341,
      "è´¢": 2342,
      "Ġclass": 2343,
      "Ġwant": 2344,
      "ç§°": 2345,
      "Ġlove": 2346,
      "åħ³äºİ": 2347,
      "è¾ĵåħ¥": 2348,
      "Ġtransport": 2349,
      "Ġcomplex": 2350,
      "Ġyear": 2351,
      "éĶĢåĶ®": 2352,
      "å¯»": 2353,
      "ience": 2354,
      "ists": 2355,
      "æĶ¯æĮģ": 2356,
      "Ġmind": 2357,
      "Ġfun": 2358,
      "Ġchar": 2359,
      "æĮī": 2360,
      "Ġconcerns": 2361,
      "conom": 2362,
      "ç®Ģåįķ": 2363,
      "ä»¥ä¸ĭæĺ¯": 2364,
      "Ġstart": 2365,
      "å¹¶ä¸Ķ": 2366,
      "avi": 2367,
      "ä¸ŃåĽ½": 2368,
      "Ġconf": 2369,
      "åħĥç´ł": 2370,
      "Ġpositive": 2371,
      "Ġcur": 2372,
      "Ġcount": 2373,
      "ery": 2374,
      "å¡": 2375,
      "å®¤": 2376,
      "Ġcost": 2377,
      "Ġequ": 2378,
      "Ġpolic": 2379,
      "aste": 2380,
      "aw": 2381,
      "éħĴ": 2382,
      "coura": 2383,
      "iven": 2384,
      "place": 2385,
      "chie": 2386,
      "çļĦæķ°": 2387,
      "Ġfl": 2388,
      "åĽłç´ł": 2389,
      "ism": 2390,
      "Ġ6": 2391,
      "Ġmedical": 2392,
      "Ġhumans": 2393,
      "Ġautom": 2394,
      "Ġ0": 2395,
      "ertainly": 2396,
      "Ġoffers": 2397,
      "lease": 2398,
      "ĠWe": 2399,
      "ĠThere": 2400,
      "Ġshow": 2401,
      "Ġdetect": 2402,
      "é£İæł¼": 2403,
      "çģ«": 2404,
      "Ġanim": 2405,
      "é¢ľèī²": 2406,
      "ave": 2407,
      "åĵª": 2408,
      "ä»¥ä¸Ĭ": 2409,
      "æľªæĿ¥": 2410,
      "XX": 2411,
      "çīĩ": 2412,
      "uch": 2413,
      "Ġtasks": 2414,
      "åħ·ä½ĵ": 2415,
      "æ¤įçī©": 2416,
      "Ġmin": 2417,
      "èīºæľ¯": 2418,
      "icult": 2419,
      "Ġexperiences": 2420,
      "æİ§åĪ¶": 2421,
      "be": 2422,
      "Ġpatients": 2423,
      "å²": 2424,
      "Ġrecogn": 2425,
      "çĥ¤": 2426,
      "Ġsmall": 2427,
      "åĿĹ": 2428,
      "åĦ": 2429,
      "å¤ªéĺ³": 2430,
      "ction": 2431,
      "ĠAn": 2432,
      "ĠDo": 2433,
      "Ġent": 2434,
      "æį¢": 2435,
      "Ġbefore": 2436,
      "Ġbecome": 2437,
      "å·²ç»ı": 2438,
      "è¡¨çİ°": 2439,
      "Ġexplo": 2440,
      "Ġachie": 2441,
      "ä»»åĬ¡": 2442,
      "å¤§çļĦ": 2443,
      "Ġday": 2444,
      "Ġfound": 2445,
      "å±±": 2446,
      "ond": 2447,
      "Ġtreatment": 2448,
      "pend": 2449,
      "hen": 2450,
      "Ġcondit": 2451,
      "ç¡®å®ļ": 2452,
      "Ġbusinesses": 2453,
      "æīĢæľī": 2454,
      "Ġdeveloped": 2455,
      "ç»Ī": 2456,
      "æŃ¥éª¤": 2457,
      "Ġdifficult": 2458,
      "åı·": 2459,
      "éĶĻ": 2460,
      "Ġcho": 2461,
      "Ġtranspare": 2462,
      "Ġquest": 2463,
      "Ġproject": 2464,
      "Ġcommunity": 2465,
      "ov": 2466,
      "å¸Ī": 2467,
      "å¼ł": 2468,
      "åĪĨç±»": 2469,
      "äººçļĦ": 2470,
      "sis": 2471,
      "çĽĬ": 2472,
      "oid": 2473,
      "ways": 2474,
      "Ġeas": 2475,
      "Ġaffect": 2476,
      "Ġothers": 2477,
      "Ġregul": 2478,
      "æĢ§åĴĮ": 2479,
      "åĸĦ": 2480,
      "agn": 2481,
      "ä½ľä¸º": 2482,
      "åı¯ä»¥å¸®åĬ©": 2483,
      "åĦ¿": 2484,
      "Ġorganizations": 2485,
      "é¸¡": 2486,
      "åħ´": 2487,
      "ĠSure": 2488,
      "Ġfriend": 2489,
      "Ġ$": 2490,
      "Ġdetail": 2491,
      "Ġtraditional": 2492,
      "Ġdesigned": 2493,
      "è´Ńä¹°": 2494,
      "ä½ĵéªĮ": 2495,
      "ç»į": 2496,
      "erm": 2497,
      "Ġconnect": 2498,
      "è¿Ļæł·": 2499,
      "Ġrecommendations": 2500,
      "Ġboth": 2501,
      "ŁéĢļ": 2502,
      "æ¯į": 2503,
      "Ġsit": 2504,
      "ä½ľçĶ¨": 2505,
      "ä»ĭç»į": 2506,
      "Ġste": 2507,
      "åı°": 2508,
      "æĤ¨çļĦ": 2509,
      "Ġshe": 2510,
      "Ġmanagement": 2511,
      "joy": 2512,
      "è´Ł": 2513,
      "Ġpromote": 2514,
      "Ġvarious": 2515,
      "(\"": 2516,
      "por": 2517,
      "Ġsens": 2518,
      "Ġessential": 2519,
      "gether": 2520,
      "ularly": 2521,
      "äºī": 2522,
      "irst": 2523,
      "Ġop": 2524,
      "Ġspecies": 2525,
      "çİ°åľ¨": 2526,
      "cho": 2527,
      "Ġbehavi": 2528,
      "çŃĳ": 2529,
      "å¥³": 2530,
      "ĠDe": 2531,
      "Ġext": 2532,
      "Ġquality": 2533,
      "è¥": 2534,
      "å®ĮæĪĲ": 2535,
      "æĢ»ä¹ĭ": 2536,
      "éĥ¨åĪĨ": 2537,
      "ä»İèĢĮ": 2538,
      "åĽ¾": 2539,
      "Ġtyp": 2540,
      "Ġstrate": 2541,
      "Ġhere": 2542,
      "è¥¿": 2543,
      "ars": 2544,
      "å¸Į": 2545,
      "çļĦæĿ": 2546,
      "å°Ŀ": 2547,
      "ier": 2548,
      "Ġec": 2549,
      "ically": 2550,
      "ering": 2551,
      "ee": 2552,
      "å¿µ": 2553,
      "Ġneg": 2554,
      "ĠCertainly": 2555,
      "å»ºçŃĳ": 2556,
      "Ġservices": 2557,
      "Ġable": 2558,
      "imes": 2559,
      "Ġoptions": 2560,
      "çĽ¸åħ³": 2561,
      "Ġsub": 2562,
      "Ġdecision": 2563,
      "æ¢": 2564,
      "Ġservice": 2565,
      "):": 2566,
      "Ġchild": 2567,
      "å¸¦æĿ¥": 2568,
      "è§£éĩĬ": 2569,
      "irt": 2570,
      "çĨ": 2571,
      "ä¸įä»ħ": 2572,
      "æĿ¾": 2573,
      "ron": 2574,
      "ç§¯æŀģ": 2575,
      "åı¤": 2576,
      "hor": 2577,
      "çłĶç©¶": 2578,
      "ç²ī": 2579,
      "ĠAm": 2580,
      "Ġprofess": 2581,
      "çļĦéĹ®é¢ĺ": 2582,
      "Ġopportunities": 2583,
      "Ġdef": 2584,
      "åİĨåı²": 2585,
      "Ġgr": 2586,
      "aur": 2587,
      "å±Ĥ": 2588,
      "çŃĸ": 2589,
      "Ġpopular": 2590,
      "æ´ģ": 2591,
      "åıĳçİ°": 2592,
      "Ġpoem": 2593,
      "èµĽ": 2594,
      "Ġob": 2595,
      "Ġdon": 2596,
      "Ġsound": 2597,
      "Ġtransportation": 2598,
      "ious": 2599,
      "åı¦": 2600,
      "Ġrole": 2601,
      "Ġfiel": 2602,
      "ç§ĳåŃ¦": 2603,
      "èĢģ": 2604,
      "reen": 2605,
      "æľīæķĪ": 2606,
      "Ġcor": 2607,
      "Ġfeedback": 2608,
      "Ġtechnologies": 2609,
      "äº¤éĢļ": 2610,
      "Ġadapt": 2611,
      "'re": 2612,
      "ervation": 2613,
      "Ġcommunities": 2614,
      "çİ°ä»£": 2615,
      "Ġlook": 2616,
      "Ġfac": 2617,
      "çĶµå½±": 2618,
      "Ġcollect": 2619,
      "å¾ĹåĪ°": 2620,
      "hips": 2621,
      "Ġavail": 2622,
      "eren": 2623,
      "ä¸Ģèµ·": 2624,
      "çīĽ": 2625,
      "Ġposs": 2626,
      "Ġweather": 2627,
      "Ġefforts": 2628,
      "¿Ģ": 2629,
      "æĹħ": 2630,
      "Ġcollabor": 2631,
      "oh": 2632,
      "æĭ¥": 2633,
      "æĪĲåĬŁ": 2634,
      "èİ·å¾Ĺ": 2635,
      "å±ħ": 2636,
      "Ġtre": 2637,
      "Ġsources": 2638,
      "Ġstudy": 2639,
      "Ġprograms": 2640,
      "éĻĲ": 2641,
      "Ġtips": 2642,
      "Ġmarket": 2643,
      "ally": 2644,
      "å®³": 2645,
      "wards": 2646,
      "æ£Ģ": 2647,
      "ä¸Ģç¯ĩ": 2648,
      "rior": 2649,
      "Ġtop": 2650,
      "Ġè¯·": 2651,
      "Ġend": 2652,
      "åĭ": 2653,
      "Ġlarge": 2654,
      "Ġdec": 2655,
      "iciency": 2656,
      "å®ļçļĦ": 2657,
      "icient": 2658,
      "è¿ĩç¨ĭä¸Ń": 2659,
      "lications": 2660,
      "ĠIf": 2661,
      "ç¼º": 2662,
      "Ġtour": 2663,
      "Ġtogether": 2664,
      "äººå·¥": 2665,
      "Ġtools": 2666,
      "æĸ¯": 2667,
      "æ°ĳ": 2668,
      "æĬĬ": 2669,
      "ä¹ĭéĹ´çļĦ": 2670,
      "çī¹çĤ¹": 2671,
      "Ġbel": 2672,
      "ditionally": 2673,
      "åĪ©çĶ¨": 2674,
      "è¾¹": 2675,
      "éĻį": 2676,
      "é¢Ŀ": 2677,
      "åįı": 2678,
      "å¾Ģ": 2679,
      "lish": 2680,
      "è¯ī": 2681,
      "å¥¶": 2682,
      "ins": 2683,
      "Ġeconom": 2684,
      "Ġinvest": 2685,
      "tain": 2686,
      "åĩºçİ°": 2687,
      "çļĦå½±åĵį": 2688,
      "aterial": 2689,
      "Ġsure": 2690,
      "Ġpass": 2691,
      "çĶ»": 2692,
      "è´£": 2693,
      "ç»ĵæŀĦ": 2694,
      "æķħ": 2695,
      "æĥħæĦŁ": 2696,
      "æ¿Ģ": 2697,
      "ellig": 2698,
      "ä¼Ĺ": 2699,
      "æ¯Ķè¾ĥ": 2700,
      "tern": 2701,
      "Ġoutcomes": 2702,
      "up": 2703,
      "Ġbeaut": 2704,
      "read": 2705,
      "çĶŁæĪĲ": 2706,
      "æķ°åŃĹ": 2707,
      "Ġdem": 2708,
      "ires": 2709,
      "åı¯ä»¥éĢļè¿ĩ": 2710,
      "æĸ°çļĦ": 2711,
      "Ġdeep": 2712,
      "å¨": 2713,
      "Ġgive": 2714,
      "çĭĹ": 2715,
      "åħ³æ³¨": 2716,
      "çĶŁåĳ½": 2717,
      "ä¼łç»Ł": 2718,
      "Ġstay": 2719,
      "æŃĮ": 2720,
      "åħ³éĶ®": 2721,
      "Ġplace": 2722,
      "ä¸»é¢ĺ": 2723,
      "å¾Īå¤ļ": 2724,
      "èĪĴ": 2725,
      "Ġprofessional": 2726,
      "yle": 2727,
      "æĽ²": 2728,
      "Ġessay": 2729,
      "ç³ĸ": 2730,
      "Ġonly": 2731,
      "19": 2732,
      "æŁĲ": 2733,
      "Ġphys": 2734,
      "å¯¹è¯Ŀ": 2735,
      "Ġcontro": 2736,
      "Ġamount": 2737,
      "cept": 2738,
      "ization": 2739,
      "Ġå¥½çļĦ": 2740,
      "ç¼ĸåĨĻ": 2741,
      "åıĹåĪ°": 2742,
      "Ġalways": 2743,
      "æ¯Ķå¦Ĥ": 2744,
      "Ġprivacy": 2745,
      "au": 2746,
      "________": 2747,
      "Ġresponsible": 2748,
      "()": 2749,
      "çŃīçŃī": 2750,
      "Ġmaterial": 2751,
      "Ġonline": 2752,
      "é¼": 2753,
      "æĶ¿": 2754,
      "åĽĽ": 2755,
      "Ġenjoy": 2756,
      "åľŁ": 2757,
      "Ġsafety": 2758,
      "Ġtw": 2759,
      "Ġcommunication": 2760,
      "ä¸½": 2761,
      "æĺ¾": 2762,
      "olution": 2763,
      "erg": 2764,
      "įä½ľ": 2765,
      "Ġuser": 2766,
      "Ġemotional": 2767,
      "time": 2768,
      "é¾": 2769,
      "Ġsecurity": 2770,
      "Ġsense": 2771,
      "elines": 2772,
      "åĬ±": 2773,
      "çī©è´¨": 2774,
      "ura": 2775,
      "Ġshare": 2776,
      "Ġanalyzing": 2777,
      "ital": 2778,
      "é±": 2779,
      "irtual": 2780,
      "Ġvisit": 2781,
      "bers": 2782,
      "Ġcour": 2783,
      "Ġproble": 2784,
      "è®¾å¤ĩ": 2785,
      "atch": 2786,
      "land": 2787,
      "é±¼": 2788,
      "æĪĳä»¬éľĢè¦ģ": 2789,
      "ç¨³": 2790,
      "ibility": 2791,
      "Ġefficiency": 2792,
      "å£°": 2793,
      "èĴ": 2794,
      "æľºåĻ¨": 2795,
      "Ġclear": 2796,
      "åĪ¶å®ļ": 2797,
      "izing": 2798,
      "Ġconditions": 2799,
      "lusion": 2800,
      "Ġlow": 2801,
      "Ġlim": 2802,
      "hers": 2803,
      "Ġrisks": 2804,
      "ç¿»": 2805,
      "Ġlet": 2806,
      "åĴĸ": 2807,
      "å¿ĥçĲĨ": 2808,
      "ats": 2809,
      "è¿ľ": 2810,
      "print": 2811,
      "Ġchanges": 2812,
      "Ġmeas": 2813,
      "Ġimproving": 2814,
      "Ġcrit": 2815,
      "å¸ĮæľĽ": 2816,
      "Ġaud": 2817,
      "50": 2818,
      "åįĹ": 2819,
      "æĹłæ³ķ": 2820,
      "Ġnegative": 2821,
      "é¡¹çĽ®": 2822,
      "und": 2823,
      "Ġcompanies": 2824,
      "æī¾åĪ°": 2825,
      "Ġcontribut": 2826,
      "æŃ£ç¡®": 2827,
      "é»Ħ": 2828,
      "å±ŀ": 2829,
      "Ġunderstanding": 2830,
      "Ġmult": 2831,
      "Ġclo": 2832,
      "å¾ģ": 2833,
      "Ġprior": 2834,
      "rim": 2835,
      "Ġtaking": 2836,
      "äººå·¥æĻºèĥ½": 2837,
      "Ġvariety": 2838,
      "åĤ": 2839,
      "Ġ{": 2840,
      "aster": 2841,
      "ody": 2842,
      "çļĦéĩįè¦ģ": 2843,
      "Ġfore": 2844,
      "èµĦæºĲ": 2845,
      "è¦ģæ±Ĥ": 2846,
      "Ġfeatures": 2847,
      "èįī": 2848,
      "èĮĥ": 2849,
      "Ġoper": 2850,
      "çº§": 2851,
      "me": 2852,
      "é²ľ": 2853,
      "æĬĢå·§": 2854,
      "ĳæĪĺ": 2855,
      "ç±»åŀĭ": 2856,
      "æĿ¿": 2857,
      "è½¯": 2858,
      "Ġrestaur": 2859,
      "Ġwithout": 2860,
      "ructure": 2861,
      "çļĦæĺ¯": 2862,
      "ĠBe": 2863,
      "Ġlist": 2864,
      "çı": 2865,
      "urate": 2866,
      "Ġbook": 2867,
      "äº²": 2868,
      "åºĹ": 2869,
      "ä¹Łæĺ¯": 2870,
      "ä»»ä½ķ": 2871,
      "Ġcam": 2872,
      "Ġgovern": 2873,
      "Ġbehavior": 2874,
      "è®Ńç»ĥ": 2875,
      "Ġfamily": 2876,
      "æĿĤ": 2877,
      "Ġcity": 2878,
      "Ġapproach": 2879,
      "Ġaccurate": 2880,
      "Ġsom": 2881,
      "Ġel": 2882,
      "èĪŀ": 2883,
      "èŀ": 2884,
      "åŁºæľ¬": 2885,
      "Ġdise": 2886,
      "Ġencoura": 2887,
      "åĥ": 2888,
      "è¯¦": 2889,
      "¦Ĥ": 2890,
      "å·¥åħ·": 2891,
      "åķ¡": 2892,
      "ĠCon": 2893,
      "Ġstill": 2894,
      "chool": 2895,
      "æĦŁåĪ°": 2896,
      "çĶŁçī©": 2897,
      "Ġ8": 2898,
      "ĠAl": 2899,
      "åĴĸåķ¡": 2900,
      "åĩĨå¤ĩ": 2901,
      "Ġwaste": 2902,
      "Ġevents": 2903,
      "æķĻèĤ²": 2904,
      "Ġmust": 2905,
      "ied": 2906,
      "asing": 2907,
      "å½¢æĪĲ": 2908,
      "Ġproducts": 2909,
      "åħ¸": 2910,
      "è®²": 2911,
      "fter": 2912,
      "å·®": 2913,
      "Ġcro": 2914,
      "less": 2915,
      "Ġfinan": 2916,
      "åıįåºĶ": 2917,
      "åĪĽéĢł": 2918,
      "Ġguidelines": 2919,
      "åĪ¤": 2920,
      "ä½ľåĵģ": 2921,
      "è¡¨ç¤º": 2922,
      "å¼Ĥ": 2923,
      "Ġknown": 2924,
      "Ġtest": 2925,
      "è¯¯": 2926,
      "ope": 2927,
      "Ġusers": 2928,
      "å¾·": 2929,
      "new": 2930,
      "è¿½": 2931,
      "iques": 2932,
      "æ¨¡åŀĭ": 2933,
      "åĬĽåĴĮ": 2934,
      "Ġhistory": 2935,
      "AI": 2936,
      "æĬķèµĦ": 2937,
      "å°Ŀè¯ķ": 2938,
      "Ġhome": 2939,
      "éĴŁ": 2940,
      "ank": 2941,
      "ä¸°": 2942,
      "èĪĴéĢĤ": 2943,
      "Ġ7": 2944,
      "Ġincrease": 2945,
      "Ġhab": 2946,
      "åĪ»": 2947,
      "è¾ĵåĩº": 2948,
      "Ġleading": 2949,
      "Ġhapp": 2950,
      "é£İéĻ©": 2951,
      "Ġperformance": 2952,
      "åŃ£": 2953,
      "Ġstand": 2954,
      "ty": 2955,
      "ç¦ı": 2956,
      "Ġcustomers": 2957,
      "åįİ": 2958,
      "Ġi": 2959,
      "Ġbelie": 2960,
      "Ġcompany": 2961,
      "ĠUn": 2962,
      "Ġsumm": 2963,
      "å½ķ": 2964,
      "é£Łçī©": 2965,
      "rent": 2966,
      "ĠUse": 2967,
      "éĢĤéĩı": 2968,
      "anced": 2969,
      "Ġlight": 2970,
      "Ġanalysis": 2971,
      "å°Ĭ": 2972,
      "ouse": 2973,
      "ted": 2974,
      "Ġ#": 2975,
      "Ġcharact": 2976,
      "ç»ľ": 2977,
      "ä¸įæĺ¯": 2978,
      "Ġdeveloping": 2979,
      "to": 2980,
      "åŁ¹": 2981,
      "Ġstrategies": 2982,
      "Ġmight": 2983,
      "çŁŃ": 2984,
      "Ġfirst": 2985,
      "çļĦæİ": 2986,
      "èĥĮ": 2987,
      "çĮ«": 2988,
      "Ġincludes": 2989,
      "ew": 2990,
      "åĽŃ": 2991,
      "Ġdiagn": 2992,
      "Ġgrowth": 2993,
      "Ġdoes": 2994,
      "ä¸ĵä¸ļ": 2995,
      "Ġkeep": 2996,
      "12": 2997,
      "ç»¿": 2998,
      "è¯¦ç»Ĩ": 2999,
      "åĥı": 3000,
      "åıĳçĶŁ": 3001,
      "fact": 3002,
      "åı¯ä»¥åľ¨": 3003,
      "ç«Ļ": 3004,
      "æĭī": 3005,
      "æµİ": 3006,
      "Ġchatbots": 3007,
      "Ġbreak": 3008,
      "è¡¡": 3009,
      "Ġ10": 3010,
      "çŁ³": 3011,
      "æĮģç»Ń": 3012,
      "life": 3013,
      "æ´Ĺ": 3014,
      "ĠAdditionally": 3015,
      "å£«": 3016,
      "ember": 3017,
      "Ġgoals": 3018,
      "å¾®": 3019,
      "Ġview": 3020,
      "Â·": 3021,
      "ove": 3022,
      "åŁºç¡": 3023,
      "Ġoptimize": 3024,
      "Ġtem": 3025,
      "Ġdown": 3026,
      "åŁºç¡Ģ": 3027,
      "è¶ħ": 3028,
      "ercis": 3029,
      "Ġless": 3030,
      "ees": 3031,
      "æĿĥ": 3032,
      "Ġkey": 3033,
      "ĠEx": 3034,
      "Ġworks": 3035,
      "è®¨": 3036,
      "Ġrobot": 3037,
      "uss": 3038,
      "åı¥åŃĲ": 3039,
      "åħ¨çĲĥ": 3040,
      "ç»ıæµİ": 3041,
      "æīįèĥ½": 3042,
      "egr": 3043,
      "ä»ĸä»¬çļĦ": 3044,
      "äºĶ": 3045,
      "èµ·æĿ¥": 3046,
      "çĵ": 3047,
      "Ġfactors": 3048,
      "Ġcultural": 3049,
      "æľ¨": 3050,
      "Ġworking": 3051,
      "ä¼¼": 3052,
      "èĲ½": 3053,
      "éĢŁåº¦": 3054,
      "ä½ı": 3055,
      "Ġeffects": 3056,
      "å©ļ": 3057,
      "br": 3058,
      "åİħ": 3059,
      "rain": 3060,
      "\")": 3061,
      "åŃ¦çĶŁ": 3062,
      "Ġpar": 3063,
      "\",": 3064,
      "atform": 3065,
      "Ġensuring": 3066,
      "Ġwords": 3067,
      "çĶ±äºİ": 3068,
      "Ġmuch": 3069,
      "Ġmar": 3070,
      "ç»ıéªĮ": 3071,
      "ä¸ºäºĨ": 3072,
      "åĲĪä½ľ": 3073,
      "Ġ/": 3074,
      "ven": 3075,
      "Ġfinancial": 3076,
      "ories": 3077,
      "æ²»": 3078,
      "work": 3079,
      "Ġtechniques": 3080,
      "æĭ¥æľī": 3081,
      "rap": 3082,
      "å°Ķ": 3083,
      "Ġest": 3084,
      "Ġavailable": 3085,
      "Ġlit": 3086,
      "æ¹": 3087,
      "Ġefficient": 3088,
      "els": 3089,
      "over": 3090,
      "Ġland": 3091,
      "Ġintellig": 3092,
      "Ġarea": 3093,
      "ature": 3094,
      "Ġpref": 3095,
      "çŁ¥è¯Ĩ": 3096,
      "æĵįä½ľ": 3097,
      "å¾ħ": 3098,
      "igate": 3099,
      "çļĦæĶ": 3100,
      "Ġmean": 3101,
      "Ġcontrol": 3102,
      "éĩĩçĶ¨": 3103,
      "bo": 3104,
      "ricult": 3105,
      "Ġprogramm": 3106,
      "Ġtowards": 3107,
      "thing": 3108,
      "ä¸įè¦ģ": 3109,
      "Ġthough": 3110,
      "å½©": 3111,
      "Ġcertain": 3112,
      "Ġwild": 3113,
      "ä»Ĭ": 3114,
      "Ġconservation": 3115,
      "çŁ¥éģĵ": 3116,
      "Ġreally": 3117,
      "çļĦåľ°": 3118,
      "io": 3119,
      "é¥°": 3120,
      "Ġful": 3121,
      "çİ¯ä¿Ŀ": 3122,
      "Ġexplore": 3123,
      "çļĦæ¸": 3124,
      "Ġdiverse": 3125,
      "åĬłå¼º": 3126,
      "çļ®": 3127,
      "Ġemotions": 3128,
      "Ġavoid": 3129,
      "'ll": 3130,
      "çļĦæī": 3131,
      "åį¡": 3132,
      "Ġplatform": 3133,
      "ances": 3134,
      "Ġsitu": 3135,
      "ä»ĺ": 3136,
      "ä½įç½®": 3137,
      "oring": 3138,
      "çĽĲ": 3139,
      "ä¸ĩ": 3140,
      "Ġdev": 3141,
      "nov": 3142,
      "ash": 3143,
      "Ġtwo": 3144,
      "å®ł": 3145,
      "ĠSome": 3146,
      "Ġexplain": 3147,
      "èµ°": 3148,
      "bon": 3149,
      "åĪĹè¡¨": 3150,
      "Ġcy": 3151,
      "èįĲ": 3152,
      "ah": 3153,
      "Ġaware": 3154,
      "ç¤¾äº¤": 3155,
      "day": 3156,
      "åıĮ": 3157,
      "æ²ŁéĢļ": 3158,
      "æ°§": 3159,
      "å¼Ģåıĳ": 3160,
      "åħ¬åı¸çļĦ": 3161,
      "Ġair": 3162,
      "åĩ»": 3163,
      "Ġå½ĵ": 3164,
      "aring": 3165,
      "éĥ½æĺ¯": 3166,
      "Ġlevels": 3167,
      "ods": 3168,
      "Ġsteps": 3169,
      "Ġcap": 3170,
      "æ´ŀ": 3171,
      "é©¬": 3172,
      "Ġreturn": 3173,
      "Ġmet": 3174,
      "çĶŁæĢģ": 3175,
      "ä¸°å¯Į": 3176,
      "æŁĵ": 3177,
      "æīĢä»¥": 3178,
      "Ġå°Ĩ": 3179,
      "é¡»": 3180,
      "Ġer": 3181,
      "Ġfra": 3182,
      "èĵ": 3183,
      "30": 3184,
      "âĢĶ": 3185,
      "ä¿ĥ": 3186,
      "Ġlikely": 3187,
      "ĠĠĠĠĠĠĠĠĠĠĠĠĠĠĠĠ": 3188,
      "åĪĿ": 3189,
      "Ġcreating": 3190,
      "ĠAr": 3191,
      "Ġfarm": 3192,
      "Ġbal": 3193,
      "Ġlives": 3194,
      "å®ĥçļĦ": 3195,
      "Ġability": 3196,
      "ä¸ĬçļĦ": 3197,
      "Ġsentence": 3198,
      "åĤ¨": 3199,
      "Ġrout": 3200,
      "Ġagain": 3201,
      "Ġprovides": 3202,
      "å®łçī©": 3203,
      "éĢĲ": 3204,
      "Ġyears": 3205,
      "èŀį": 3206,
      "Ġphysical": 3207,
      "Python": 3208,
      "iting": 3209,
      "è°ĥæķ´": 3210,
      "ç½ĳç»ľ": 3211,
      "æħ¢": 3212,
      "ç©ºéĹ´": 3213,
      "åĽ°": 3214,
      "è±Ĩ": 3215,
      "æĽ´å¤ļçļĦ": 3216,
      "Ġmaintain": 3217,
      "å®ŀéĻħ": 3218,
      "Ġtravel": 3219,
      "Ġsat": 3220,
      "çĶµåŃĲ": 3221,
      "pro": 3222,
      "ĠæĪĳ": 3223,
      "æ±½": 3224,
      "åģĩ": 3225,
      "æĲŃ": 3226,
      "éļıçĿĢ": 3227,
      "ale": 3228,
      "è¿ĺæľī": 3229,
      "ç¤¼": 3230,
      "Ġconsum": 3231,
      "ĊĠ": 3232,
      "ex": 3233,
      "ncy": 3234,
      "Ġquestions": 3235,
      "fort": 3236,
      "making": 3237,
      "Ġdesc": 3238,
      "Ġinvolves": 3239,
      "15": 3240,
      "Ġstress": 3241,
      "åŃĹç¬¦": 3242,
      "Ġimpacts": 3243,
      "Ġexercis": 3244,
      "åĿļ": 3245,
      "ledge": 3246,
      "ç§ĳæĬĢ": 3247,
      "oci": 3248,
      "Ġeffectively": 3249,
      "æ¶Īè´¹": 3250,
      "here": 3251,
      "ĠRes": 3252,
      "Ġconclusion": 3253,
      "éĺħ": 3254,
      "Ġstre": 3255,
      "issions": 3256,
      "æ·»": 3257,
      "éĿĻ": 3258,
      "Ġvirtual": 3259,
      "è¡£": 3260,
      "Ġachieve": 3261,
      "ource": 3262,
      "è¿ŀ": 3263,
      "acks": 3264,
      "è¡¨æł¼": 3265,
      "Ġimportance": 3266,
      "èĩªæĪĳ": 3267,
      "num": 3268,
      "çļĦæł": 3269,
      "Ġrelationships": 3270,
      "Ġworkers": 3271,
      "gical": 3272,
      "orpor": 3273,
      "erson": 3274,
      "åĳ¢": 3275,
      "Ġtell": 3276,
      "ĠGo": 3277,
      "nds": 3278,
      "æİ¨èįĲ": 3279,
      "ohn": 3280,
      "å¿ħé¡»": 3281,
      "å®¹æĺĵ": 3282,
      "onom": 3283,
      "Ġbec": 3284,
      "æ³Ľ": 3285,
      "Ġmove": 3286,
      "pos": 3287,
      "Ġstory": 3288,
      "æŃ¢": 3289,
      "ĠMan": 3290,
      "Ġpriorit": 3291,
      "Ġindustries": 3292,
      "èľ": 3293,
      "Ġpossible": 3294,
      "Ġexpress": 3295,
      "abilities": 3296,
      "Ġintegr": 3297,
      "ä»£è¡¨": 3298,
      "Ġrespond": 3299,
      "Ġplease": 3300,
      "åĪĨéĴŁ": 3301,
      "æľºä¼ļ": 3302,
      "Ġthings": 3303,
      "ĠCom": 3304,
      "äº¤æµģ": 3305,
      "Ġmeth": 3306,
      "ĠWhile": 3307,
      "urther": 3308,
      "Ġwide": 3309,
      "èĳĹ": 3310,
      "ĸçķ¥": 3311,
      "ides": 3312,
      "ething": 3313,
      "pan": 3314,
      "çŃĸçķ¥": 3315,
      "Ġcent": 3316,
      "ology": 3317,
      "uracy": 3318,
      "çļĦä¸Ģ": 3319,
      "å¾ª": 3320,
      "nce": 3321,
      "ward": 3322,
      "Ġthen": 3323,
      "çªģ": 3324,
      "å¥ĩ": 3325,
      "Ġblo": 3326,
      "ai": 3327,
      "æŀĹ": 3328,
      "ç®Ĺæ³ķ": 3329,
      "ç»¼": 3330,
      "Ġprint": 3331,
      "aces": 3332,
      "ªæĸ½": 3333,
      "lu": 3334,
      "çļĦæĦı": 3335,
      "pre": 3336,
      "Ġsol": 3337,
      "Ġoverall": 3338,
      "Ġes": 3339,
      "hold": 3340,
      "éģĩ": 3341,
      "Ġpopul": 3342,
      "å°ıè¯´": 3343,
      "æ³¢": 3344,
      "åįģ": 3345,
      "ä¹Łåı¯ä»¥": 3346,
      "é£Łåĵģ": 3347,
      "Ġcontent": 3348,
      "å°Ħ": 3349,
      "Ġrequires": 3350,
      "æ£ĢæŁ¥": 3351,
      "ĊĠĠĠĠĠĠĠĠĠĠĠ": 3352,
      "Ġgroups": 3353,
      "Ġfair": 3354,
      "Ġbl": 3355,
      "å®ŀéªĮ": 3356,
      "æĮīçħ§": 3357,
      "osp": 3358,
      "str": 3359,
      "ä¸įèĥ½": 3360,
      "Ġharm": 3361,
      "Ġprodu": 3362,
      "çļĦæĬĢ": 3363,
      "çĩ": 3364,
      "tle": 3365,
      "Ġanimals": 3366,
      "è§Ĵèī²": 3367,
      "lev": 3368,
      "æ¸Ĳ": 3369,
      "å¤įæĿĤ": 3370,
      "Ġdepend": 3371,
      "æĮĳæĪĺ": 3372,
      "åĮħåĲ«": 3373,
      "Ġhelps": 3374,
      "Ġopen": 3375,
      "Ġnet": 3376,
      "ĠĠĠĠĠ": 3377,
      "Ġstrong": 3378,
      "Ġjour": 3379,
      "Ġ<": 3380,
      "å¹¿æ³Ľ": 3381,
      "æķ´ä¸ª": 3382,
      "Ġelect": 3383,
      "Ġresponse": 3384,
      "åįķè¯į": 3385,
      "æľĭ": 3386,
      "ĠOne": 3387,
      "åĮĸåŃ¦": 3388,
      "éĴĪ": 3389,
      "Ġquick": 3390,
      "ually": 3391,
      "Ġsomething": 3392,
      "Ġtrack": 3393,
      "åº¦åĴĮ": 3394,
      "erences": 3395,
      "æłĳ": 3396,
      "Ġexc": 3397,
      "Ġaccuracy": 3398,
      "é£ŀ": 3399,
      "Ġfield": 3400,
      "å¯»æī¾": 3401,
      "éħ¸": 3402,
      "Ġhope": 3403,
      "çĳ": 3404,
      "Ġinnov": 3405,
      "ç»ª": 3406,
      "alk": 3407,
      "Ġtypes": 3408,
      "Ġdid": 3409,
      "åĬª": 3410,
      "Ġcall": 3411,
      "è¯Ĺ": 3412,
      "Ġearly": 3413,
      "Ġcommon": 3414,
      "Ġcheck": 3415,
      "æľĢç»Ī": 3416,
      "æĪĳçļĦ": 3417,
      "Ġsym": 3418,
      "app": 3419,
      "çĤĴ": 3420,
      "æĬĢèĥ½": 3421,
      "Ġenh": 3422,
      "Ġimm": 3423,
      "Ġagricult": 3424,
      "ç»ĩ": 3425,
      "æ»¡è¶³": 3426,
      "Ġschool": 3427,
      "bal": 3428,
      "Ġfollowing": 3429,
      "Ġwebs": 3430,
      "Ġculture": 3431,
      "way": 3432,
      "based": 3433,
      "ä¸Ģå®ļ": 3434,
      "åķĨåĵģ": 3435,
      "çļĦåıĳå±ķ": 3436,
      "ude": 3437,
      "çĶŁäº§": 3438,
      "osystem": 3439,
      "Ġplant": 3440,
      "åı¶": 3441,
      "åĲĥ": 3442,
      "ä»ĸçļĦ": 3443,
      "è¯¢": 3444,
      "der": 3445,
      "å®¶åħ·": 3446,
      "Ġfree": 3447,
      "ç§»": 3448,
      "æİĮ": 3449,
      "Ġbody": 3450,
      "Ġpresent": 3451,
      "Ġparticularly": 3452,
      "Ġchildren": 3453,
      "Ġstudent": 3454,
      ").": 3455,
      "çī¹å¾ģ": 3456,
      "ĠTe": 3457,
      "ĠTo": 3458,
      "èĶ": 3459,
      "éĺħè¯»": 3460,
      "æķĪçİĩ": 3461,
      "Ġprogram": 3462,
      "éħ±": 3463,
      "åıĺå¾Ĺ": 3464,
      "ix": 3465,
      "Ġcome": 3466,
      "çļĦæ²": 3467,
      "åħ±åĲĮ": 3468,
      "Ġemployees": 3469,
      "è¯´æĺİ": 3470,
      "Ġheart": 3471,
      "Ġmot": 3472,
      "æľĭåıĭ": 3473,
      "eric": 3474,
      "è¯ĳ": 3475,
      "Ġcurrent": 3476,
      "æĪĲæľ¬": 3477,
      "Ġtoo": 3478,
      "çİ©å®¶": 3479,
      "åĪĽæĸ°": 3480,
      "Ġecosystem": 3481,
      "å¸¸è§ģ": 3482,
      "ä¸ĢæŃ¥": 3483,
      "Ġpres": 3484,
      "Ġmulti": 3485,
      "åĳĬè¯ī": 3486,
      "ä¸¥": 3487,
      "Ġmit": 3488,
      "Ġaction": 3489,
      "çĨŁ": 3490,
      "Ġhabit": 3491,
      "Ġ9": 3492,
      "åı£æĦŁ": 3493,
      "ç®±": 3494,
      "Ġuses": 3495,
      "å¢ŀå¼º": 3496,
      "ç»Ļåĩº": 3497,
      "Ġdep": 3498,
      "Ġeconomic": 3499,
      "æĢ§çļĦ": 3500,
      "åĨ°": 3501,
      "18": 3502,
      "Ġhelped": 3503,
      "åĲ¸å¼ķ": 3504,
      "çİĭ": 3505,
      "Ġdiagnos": 3506,
      "åł": 3507,
      "èģĶç³»": 3508,
      "ç¾¤": 3509,
      "ç»ĥä¹ł": 3510,
      "æĪĲéķ¿": 3511,
      "Ġpoint": 3512,
      "å®ļæľŁ": 3513,
      "åĳ¼": 3514,
      "èį¯": 3515,
      "æĿ¯": 3516,
      "æ¤Ĵ": 3517,
      "æķĪæŀľ": 3518,
      "Ġspecial": 3519,
      "æ··": 3520,
      "åĩłä¸ª": 3521,
      "ause": 3522,
      "éĨ": 3523,
      "æ¯ĶèµĽ": 3524,
      "è·Ŀ": 3525,
      "Ġ*": 3526,
      "Ġtimes": 3527,
      "icles": 3528,
      "ç´§": 3529,
      "å¦Ĥæŀľä½ł": 3530,
      "çĭ¬çī¹": 3531,
      "çģµ": 3532,
      "ç¨İ": 3533,
      "Ġcarbon": 3534,
      "Ġbias": 3535,
      "åĬ©äºİ": 3536,
      "Ġconst": 3537,
      "èĩªçĶ±": 3538,
      "æĿ¥è¯´": 3539,
      "å°±æĺ¯": 3540,
      "åį°": 3541,
      "Ġmeet": 3542,
      "è§ĦåĪĴ": 3543,
      "çļĦç¾": 3544,
      "èĲ¥åħ»": 3545,
      "ators": 3546,
      "ç¨³å®ļ": 3547,
      "ode": 3548,
      "çħ®": 3549,
      "Ġassoci": 3550,
      "å¿Ĺ": 3551,
      "è¡ĮæĺŁ": 3552,
      "æĿİ": 3553,
      "ĠRo": 3554,
      "Ġreview": 3555,
      "ĠSh": 3556,
      "åĩĢ": 3557,
      "Ġknowledge": 3558,
      "ä»¥ä¾¿": 3559,
      "æµĭè¯ķ": 3560,
      "åĲĪéĢĤ": 3561,
      "sc": 3562,
      "å½¢å¼ı": 3563,
      "Ġfriends": 3564,
      "Ġnature": 3565,
      "Ġcritical": 3566,
      "æ´ĭ": 3567,
      "Ġafter": 3568,
      "erve": 3569,
      "Ġrece": 3570,
      "çļĦæŃ": 3571,
      "æ±½è½¦": 3572,
      "çķĮ": 3573,
      "Ġloss": 3574,
      "Ġapplications": 3575,
      "å¤ļç§į": 3576,
      "éĶħ": 3577,
      "ä¸²": 3578,
      "Ġinsp": 3579,
      "Ġcontinue": 3580,
      "---": 3581,
      "Th": 3582,
      "Ġvol": 3583,
      "lut": 3584,
      "oks": 3585,
      "sequ": 3586,
      "Ġbir": 3587,
      "åĲĪçĲĨ": 3588,
      "Ġnecess": 3589,
      "çŃīæĸ¹éĿ¢": 3590,
      "é¼ĵ": 3591,
      "ĠInd": 3592,
      "Ġsoft": 3593,
      "Ġlive": 3594,
      "å°ıæĺİ": 3595,
      "Ġbring": 3596,
      "æĺ¯æĮĩ": 3597,
      "Ġsoil": 3598,
      "ilar": 3599,
      "ä¸ľ": 3600,
      "æĿ¡ä»¶": 3601,
      "Ġtri": 3602,
      "äº®": 3603,
      "Ġmom": 3604,
      "æı¡": 3605,
      "These": 3606,
      "ä¼°": 3607,
      "ŀäºī": 3608,
      "çĽĳ": 3609,
      "èĤ¤": 3610,
      "è´¢åĬ¡": 3611,
      "æ·»åĬł": 3612,
      "é¥®é£Ł": 3613,
      "Ġallowing": 3614,
      "åºķ": 3615,
      "Ġright": 3616,
      "Ġexpert": 3617,
      "Ġ19": 3618,
      "Ġsupp": 3619,
      "Ġinit": 3620,
      "çļĦæµ": 3621,
      "arget": 3622,
      "Ġexpect": 3623,
      "Ġmeasures": 3624,
      "olutions": 3625,
      "just": 3626,
      "arc": 3627,
      "å°ļ": 3628,
      "ĠCl": 3629,
      "Ġpractice": 3630,
      "æľīåĬ©äºİ": 3631,
      "å¤§éĩı": 3632,
      "',": 3633,
      "iment": 3634,
      "Ġdiscuss": 3635,
      "ĠLe": 3636,
      "éļľ": 3637,
      "100": 3638,
      "Ġè¿Ļ": 3639,
      "çļĦæĦŁ": 3640,
      "Ġreflect": 3641,
      "itation": 3642,
      "åį«": 3643,
      "äºĨä¸Ģ": 3644,
      "ney": 3645,
      "ised": 3646,
      "è¶ĭ": 3647,
      "äºĨä¸Ģä¸ª": 3648,
      "Ġincreasing": 3649,
      "çļĦæĮ": 3650,
      "Ġstru": 3651,
      "æĢ»ç»ĵ": 3652,
      "ely": 3653,
      "å®ĩ": 3654,
      "Ġauthor": 3655,
      "è¡¨éĿ¢": 3656,
      "Ġx": 3657,
      "æķħäºĭ": 3658,
      "emic": 3659,
      "Ġrepresent": 3660,
      "ger": 3661,
      "Ġincreased": 3662,
      "ones": 3663,
      "ains": 3664,
      "Ġtrained": 3665,
      "Ġfish": 3666,
      "Ġstate": 3667,
      "åĨ·": 3668,
      "çĶŁéķ¿": 3669,
      "Ġrenew": 3670,
      "ording": 3671,
      "åĮĹ": 3672,
      "æİªæĸ½": 3673,
      "å¹³è¡¡": 3674,
      "Ġsuccessful": 3675,
      "ä¸ĭéĿ¢": 3676,
      "Ġactivity": 3677,
      "ĠIm": 3678,
      "èĮ¶": 3679,
      "éĢĤåºĶ": 3680,
      "èĦĳ": 3681,
      "æİ¢ç´¢": 3682,
      "ffic": 3683,
      "ç»ĦæĪĲ": 3684,
      "atives": 3685,
      "Ġscen": 3686,
      "äºļ": 3687,
      "æ²Ļ": 3688,
      "gress": 3689,
      "ä½¿å¾Ĺ": 3690,
      "ĠWrit": 3691,
      "æī¿": 3692,
      "Ġdiscrim": 3693,
      "Ġassistants": 3694,
      "Ġexist": 3695,
      "çķĻ": 3696,
      "Ġspace": 3697,
      "æľĢè¿ĳ": 3698,
      "Ġideas": 3699,
      "éĩĩåıĸ": 3700,
      "light": 3701,
      "æ³¨éĩį": 3702,
      "çļĦæĹ¶éĹ´": 3703,
      "è¿İ": 3704,
      "Ġcomb": 3705,
      "éĢĤå½ĵ": 3706,
      "Ġyourself": 3707,
      "ason": 3708,
      "åĮĢ": 3709,
      "åı¯ä»¥ä½¿çĶ¨": 3710,
      "åħħæ»¡": 3711,
      "Ġvalues": 3712,
      "æ½": 3713,
      "Ġbiases": 3714,
      "ä¿ĥè¿Ľ": 3715,
      "åľºæĻ¯": 3716,
      "ross": 3717,
      "åį³åı¯": 3718,
      "Ġcru": 3719,
      "Ġnumber": 3720,
      "Ġtype": 3721,
      "rast": 3722,
      "åĩĨç¡®": 3723,
      "Ġpast": 3724,
      "çģ¯": 3725,
      "å®ļä¹ī": 3726,
      "Ġsolutions": 3727,
      "Ġter": 3728,
      "ä¿Ŀè¯ģ": 3729,
      "èĶ¬": 3730,
      "å¹¸": 3731,
      "åī§": 3732,
      "åħ´è¶£": 3733,
      "åª": 3734,
      "ention": 3735,
      "avor": 3736,
      "Ġscient": 3737,
      "åĬªåĬĽ": 3738,
      "Ġproviders": 3739,
      "Ġpolicies": 3740,
      "alu": 3741,
      "çļĦæĸ¹æ³ķ": 3742,
      "Ġallows": 3743,
      "Ġintelligence": 3744,
      "Ġ`": 3745,
      "Ġemissions": 3746,
      "Ġmeaning": 3747,
      "Ġstyle": 3748,
      "åİŁåĽł": 3749,
      "Ġstrugg": 3750,
      "çļĦç¾İ": 3751,
      "iful": 3752,
      "dition": 3753,
      "éĥ½æľī": 3754,
      "ç©ºæ°Ķ": 3755,
      "å®ĥä»¬çļĦ": 3756,
      "ä¼ĺåĮĸ": 3757,
      "Ġinflu": 3758,
      "åŁºäºİ": 3759,
      "Ġdetails": 3760,
      "Ġtransparency": 3761,
      "Ġmess": 3762,
      "ĠThat": 3763,
      "Ġgame": 3764,
      "pri": 3765,
      "è¶ĭåĬ¿": 3766,
      "å½Ĵ": 3767,
      "ç¿»è¯ĳ": 3768,
      "æķ£": 3769,
      "ĠAmeric": 3770,
      "éŃ": 3771,
      "Ġproduction": 3772,
      "Ġincorpor": 3773,
      "By": 3774,
      "æĻļ": 3775,
      "Ġinvolve": 3776,
      "Ġhot": 3777,
      "æĻ®": 3778,
      "by": 3779,
      "Ġflow": 3780,
      "Ġemerg": 3781,
      "åº§": 3782,
      "Ġidea": 3783,
      "åİĭåĬĽ": 3784,
      "éĿĴ": 3785,
      "oms": 3786,
      "èģĮä¸ļ": 3787,
      "Ġreport": 3788,
      "Ġpap": 3789,
      "Ġtherap": 3790,
      "Ġsal": 3791,
      "åıĤä¸İ": 3792,
      "æĸĩåŃ¦": 3793,
      "æĲŃéħį": 3794,
      "Ġæł¹æį®": 3795,
      "),": 3796,
      "oot": 3797,
      "Ġcr": 3798,
      "Ġprocesses": 3799,
      "gin": 3800,
      "å¹³åı°": 3801,
      "å¯Ł": 3802,
      "Ġpromoting": 3803,
      "æļĸ": 3804,
      "akehold": 3805,
      "ç»§": 3806,
      "iver": 3807,
      "æ¦Ĥ": 3808,
      "Ġmodels": 3809,
      "Ġdra": 3810,
      "èĸ": 3811,
      "Ġgroup": 3812,
      "è¶³å¤Ł": 3813,
      "Ġgreen": 3814,
      "Ġhealthy": 3815,
      "Ġcomfort": 3816,
      "Ġadditional": 3817,
      "é¤Ĳåİħ": 3818,
      "Ġmaterials": 3819,
      "ä¸Ģæ¬¡": 3820,
      "Ġmanage": 3821,
      "çļĦæ¯": 3822,
      "ä¼¤": 3823,
      "åıĬæĹ¶": 3824,
      "Ġglo": 3825,
      "Ġstat": 3826,
      "å¿«éĢŁ": 3827,
      "Ġmonitoring": 3828,
      "atter": 3829,
      "ĠCol": 3830,
      "aily": 3831,
      "rand": 3832,
      "oice": 3833,
      "resh": 3834,
      "ç»Ħç»ĩ": 3835,
      "word": 3836,
      "Ġunder": 3837,
      "Ġnecessary": 3838,
      "Ġhelpful": 3839,
      "é»ĳæ´ŀ": 3840,
      "åģļåĩº": 3841,
      "Ġcourse": 3842,
      "ĠPl": 3843,
      "Ġleg": 3844,
      "Ġface": 3845,
      "ä»¤": 3846,
      "èī¯å¥½çļĦ": 3847,
      "åĮ»çĸĹ": 3848,
      "ock": 3849,
      "çĽĸ": 3850,
      "idence": 3851,
      "Ġassociated": 3852,
      "Ġprogress": 3853,
      "ĠEng": 3854,
      "åľĨ": 3855,
      "Ġeveryone": 3856,
      "ç¼ĵ": 3857,
      "èĵĿ": 3858,
      "å¤©æ°Ķ": 3859,
      "Ġactions": 3860,
      "ems": 3861,
      "å®Ļ": 3862,
      "ush": 3863,
      "é¡¾": 3864,
      "Ġcosts": 3865,
      "ator": 3866,
      "ç©¿": 3867,
      "Ġamounts": 3868,
      "èĶ¬èıľ": 3869,
      "..": 3870,
      "Ġmanner": 3871,
      "Ġconsequ": 3872,
      "æ°ĶåĢĻ": 3873,
      "Ġinsights": 3874,
      "being": 3875,
      "atory": 3876,
      "lex": 3877,
      "Ġmeans": 3878,
      "Ġcollaboration": 3879,
      "Ġperspect": 3880,
      "priate": 3881,
      "Ġä¸º": 3882,
      "ener": 3883,
      "å°Ĭéĩį": 3884,
      "Ġtarget": 3885,
      "è®°å½ķ": 3886,
      "åĢĴ": 3887,
      "Ġrenewable": 3888,
      "ĠShe": 3889,
      "æĦ¿": 3890,
      "èĥ½æºĲ": 3891,
      "Ġinput": 3892,
      "å®ĩå®Ļ": 3893,
      "orm": 3894,
      "ape": 3895,
      "è¿Ļæĺ¯": 3896,
      "Ġadjust": 3897,
      "eries": 3898,
      "Ġdire": 3899,
      "ĠâĢľ": 3900,
      "ä¾Ŀ": 3901,
      "ustr": 3902,
      "Ġbeautiful": 3903,
      "fect": 3904,
      "Ġdue": 3905,
      "reci": 3906,
      "çĮ®": 3907,
      "èĥĮæĻ¯": 3908,
      "èĤ¡": 3909,
      "Ġdam": 3910,
      "ik": 3911,
      "Ġadvanced": 3912,
      "ĠSe": 3913,
      "çĽ¸å¯¹": 3914,
      "Ġshort": 3915,
      "åĲįç§°": 3916,
      "Ġobject": 3917,
      "éĢłæĪĲ": 3918,
      "èĲ¥éĶĢ": 3919,
      "çļĦæĥħæĦŁ": 3920,
      "ç¥¨": 3921,
      "Ġcountries": 3922,
      "ining": 3923,
      "istic": 3924,
      "Ġplans": 3925,
      "è´£ä»»": 3926,
      "Ġstakehold": 3927,
      "Ġassess": 3928,
      "æĢĿèĢĥ": 3929,
      "ech": 3930,
      "æĪĲåĳĺ": 3931,
      "Ġcomput": 3932,
      "Ġdaily": 3933,
      "21": 3934,
      "çļĦæĥħåĨµ": 3935,
      "æıĲåĩº": 3936,
      "ĠWhen": 3937,
      "åªĴ": 3938,
      "ä¸Ńå¿ĥ": 3939,
      "ished": 3940,
      "onomous": 3941,
      "ern": 3942,
      "ç»´æĬ¤": 3943,
      "ames": 3944,
      "Ġprioritize": 3945,
      "çº¸": 3946,
      "èĤ¥": 3947,
      "Ġtemper": 3948,
      "æ¸ħæ´ģ": 3949,
      "the": 3950,
      "æ±¡": 3951,
      "æĺ¯åľ¨": 3952,
      "ĠZ": 3953,
      "Ġminim": 3954,
      "å¤§å°ı": 3955,
      "use": 3956,
      "åĵªäºĽ": 3957,
      "Ġappreci": 3958,
      "reng": 3959,
      "ĠTr": 3960,
      "Ġregulations": 3961,
      "éĶĻè¯¯": 3962,
      "èĢĮä¸Ķ": 3963,
      "èĪ¬": 3964,
      "èĳ±": 3965,
      "èĨ": 3966,
      "æ°´å¹³": 3967,
      "è´Ńçī©": 3968,
      "åŃĹç¬¦ä¸²": 3969,
      "å¯¹æĸ¹": 3970,
      "Ġhim": 3971,
      "Ġconsequences": 3972,
      "å·´": 3973,
      "é¼ĵåĬ±": 3974,
      "Ġfil": 3975,
      "äººåĳĺ": 3976,
      "è·Ŀç¦»": 3977,
      "çļĦæ°´": 3978,
      "çī©çĲĨ": 3979,
      "åĲĮæĹ¶ä¹Ł": 3980,
      "åħ¶æ¬¡": 3981,
      ",\"": 3982,
      "æ¶²": 3983,
      "çĶ·": 3984,
      "ival": 3985,
      "åı¯ä»¥è®©": 3986,
      "æĥ¯": 3987,
      "Ġadvance": 3988,
      "Ġveh": 3989,
      "å¦ĤæŀľæĤ¨": 3990,
      "Ġestab": 3991,
      "åľ¨è¿Ļä¸ª": 3992,
      "ript": 3993,
      "ç«¯": 3994,
      "ä¸įä¼ļ": 3995,
      "Ġtransparent": 3996,
      "æķ°éĩı": 3997,
      "çĽĺ": 3998,
      "Ġspeak": 3999,
      "Ġpark": 4000,
      "ĠPre": 4001,
      "Ġstakeholders": 4002,
      "éº": 4003,
      "Ġevent": 4004,
      "çļĦæķ°æį®": 4005,
      "èĩªåĬ¨": 4006,
      "ç»ĨèĬĤ": 4007,
      "è¯Ħä¼°": 4008,
      "æ¶¦": 4009,
      "Ġpreferences": 4010,
      "Ġveget": 4011,
      "æįŁ": 4012,
      "Ġgl": 4013,
      "Ġpain": 4014,
      "ogra": 4015,
      "Ġtraffic": 4016,
      "equ": 4017,
      "Ġoce": 4018,
      "Ġanother": 4019,
      "ä¹ĺ": 4020,
      "âĢĿï¼Į": 4021,
      "å¤ļå°ĳ": 4022,
      "Ġagainst": 4023,
      "ç»ıåİĨ": 4024,
      "è®¡ç®Ĺæľº": 4025,
      "èĢĲ": 4026,
      "è½¯ä»¶": 4027,
      "Ġplants": 4028,
      "çĽ¸äºĴ": 4029,
      "Ġsame": 4030,
      "é¢ĳ": 4031,
      "\\_": 4032,
      "rug": 4033,
      "Ġvalu": 4034,
      "Ġocc": 4035,
      "çļĦç¤": 4036,
      "Ġsustainability": 4037,
      "ote": 4038,
      "ext": 4039,
      "Ġdig": 4040,
      "de": 4041,
      "Ġcrucial": 4042,
      "NA": 4043,
      "æī§": 4044,
      "å±Ģ": 4045,
      "æĭŁ": 4046,
      "Ġnon": 4047,
      "æĭĮ": 4048,
      "Ġengaging": 4049,
      "Ġintern": 4050,
      "LP": 4051,
      "æ¸©åº¦": 4052,
      "æł¸": 4053,
      "æĬ¥åĳĬ": 4054,
      "æĿ¥è¶Ĭ": 4055,
      "hood": 4056,
      "ĠIs": 4057,
      "ä¸īä¸ª": 4058,
      "å¦Ĥä¸ĭ": 4059,
      "æĪĳæĥ³": 4060,
      "çī©ä½ĵ": 4061,
      "force": 4062,
      "Ġneeded": 4063,
      "Ġimages": 4064,
      "Ġbuilding": 4065,
      "icious": 4066,
      "è¶ĬæĿ¥è¶Ĭ": 4067,
      "æĶ¾åħ¥": 4068,
      "éĻįä½İ": 4069,
      "æ¶Īè´¹èĢħ": 4070,
      "å½ĵåľ°": 4071,
      "ç£": 4072,
      "go": 4073,
      "iversity": 4074,
      "é¢Ħç®Ĺ": 4075,
      "icle": 4076,
      "æ··åĲĪ": 4077,
      "è¿ĻéĩĮ": 4078,
      "Ġparticip": 4079,
      "Ġdishes": 4080,
      "Ġthroughout": 4081,
      "Ġwithin": 4082,
      "åı³": 4083,
      "é«ĺçļĦ": 4084,
      "ĠDevelop": 4085,
      "Ġphot": 4086,
      "Ġtrust": 4087,
      "æĦıè¯Ĩ": 4088,
      "ä»¥ç¡®ä¿Ŀ": 4089,
      "çĬ¶æĢģ": 4090,
      "Ġautomation": 4091,
      "11": 4092,
      "Ġpost": 4093,
      "æīĭæľº": 4094,
      "works": 4095,
      "éĢı": 4096,
      "åºĵ": 4097,
      "Ġwind": 4098,
      "Ġ==": 4099,
      "Ġprocessing": 4100,
      "èĮĥåĽ´": 4101,
      "æĦıä¹ī": 4102,
      "è¿½æ±Ĥ": 4103,
      "Ã©": 4104,
      "å¾Ħ": 4105,
      "éĿł": 4106,
      "ä¸ĸ": 4107,
      "èĻ½": 4108,
      "ç«ŀäºī": 4109,
      "Ġappropriate": 4110,
      "æĽ´å¥½çļĦ": 4111,
      "Ġcharacter": 4112,
      "ç§ĺ": 4113,
      "itude": 4114,
      "Ġteac": 4115,
      "leep": 4116,
      "ince": 4117,
      "å·¦": 4118,
      "ground": 4119,
      "è¡Įä¸ļ": 4120,
      "éĴĪå¯¹": 4121,
      "cl": 4122,
      "å¿ħè¦ģ": 4123,
      "Ġdeterm": 4124,
      "----------------": 4125,
      "Ġstreng": 4126,
      "Ġchallenging": 4127,
      "ork": 4128,
      "Ġanx": 4129,
      "èī²çļĦ": 4130,
      "Ġhard": 4131,
      "æĺİç¡®": 4132,
      "do": 4133,
      "åĪĨäº«": 4134,
      "æĶ¹åıĺ": 4135,
      "ä½³": 4136,
      "åıªæľī": 4137,
      "å±ķç¤º": 4138,
      "Ġcamp": 4139,
      "çº³": 4140,
      "aj": 4141,
      "etic": 4142,
      "ument": 4143,
      "ä½łåı¯ä»¥": 4144,
      "Ġpollut": 4145,
      "Ġhig": 4146,
      "pping": 4147,
      "çĦ¶èĢĮ": 4148,
      "ç¬¬äºĮ": 4149,
      "é¸Ł": 4150,
      "çī©åĵģ": 4151,
      "ä¸¾": 4152,
      "Ġencourage": 4153,
      "pecial": 4154,
      "Ġacross": 4155,
      "elves": 4156,
      "äºĭä»¶": 4157,
      "cle": 4158,
      "æ©": 4159,
      "åªĴä½ĵ": 4160,
      "ners": 4161,
      "Ġcal": 4162,
      "èĻ½çĦ¶": 4163,
      "åĽº": 4164,
      "ä¹łæĥ¯": 4165,
      "ĠNew": 4166,
      "Ġsafe": 4167,
      "èĥ½éĩı": 4168,
      "istics": 4169,
      "ä¹ĭåīį": 4170,
      "Ġissue": 4171,
      "å¤ļä¸ª": 4172,
      "åĨ³çŃĸ": 4173,
      "è¾¾åĪ°": 4174,
      "æĹ©": 4175,
      "ä¸įåı¯": 4176,
      "ä¸ĢçĽ´": 4177,
      "å·¨": 4178,
      "æĦŁè°¢": 4179,
      "ä¸Ģæ®µ": 4180,
      "Ġmachines": 4181,
      "Ġword": 4182,
      "å°Ĩåħ¶": 4183,
      "ç»§ç»Ń": 4184,
      "çī¹åĪ«": 4185,
      "Ġagriculture": 4186,
      "æĢİ": 4187,
      "éĢĲæ¸Ĳ": 4188,
      "éĵ¾": 4189,
      "Ġkind": 4190,
      "è¯¾": 4191,
      "å¢Ļ": 4192,
      "è°¢è°¢": 4193,
      "Ġalgorithm": 4194,
      "Ġalong": 4195,
      "è£ħé¥°": 4196,
      "Ġeasy": 4197,
      "äºĳ": 4198,
      "è§£åĨ³æĸ¹æ¡Ī": 4199,
      "Ġawareness": 4200,
      "'ve": 4201,
      "æĸ¹åĲĳ": 4202,
      "Ġnever": 4203,
      "Ġquickly": 4204,
      "Ġrespect": 4205,
      "çļĦæĻ": 4206,
      "Ġamong": 4207,
      "Ġaccountability": 4208,
      "Ġlaw": 4209,
      "ening": 4210,
      "Ġdefin": 4211,
      "Ġsurround": 4212,
      "éĵģ": 4213,
      "Ġpowerful": 4214,
      "Ġcause": 4215,
      "æ¥": 4216,
      "æİĮæı¡": 4217,
      "è¿ĺæĺ¯": 4218,
      "ead": 4219,
      "Ġcreative": 4220,
      "è¡Ģ": 4221,
      "Ġlocated": 4222,
      "unning": 4223,
      "åľ°åĮº": 4224,
      "éĿ¢ç§¯": 4225,
      "éĽ¨": 4226,
      "ĠAnd": 4227,
      "Ġnear": 4228,
      "Ġiniti": 4229,
      "ression": 4230,
      "ä¸ĭæĿ¥": 4231,
      "é©¶": 4232,
      "¾çĹħ": 4233,
      "25": 4234,
      "ables": 4235,
      "æľīè¶£": 4236,
      "å¾ªçİ¯": 4237,
      "çŃĶæ¡Ī": 4238,
      "çł´": 4239,
      "ication": 4240,
      "ĠCould": 4241,
      "éĻ¢": 4242,
      "æ²»çĸĹ": 4243,
      "Ġaddition": 4244,
      "äºĭæĥħ": 4245,
      "Ġbecause": 4246,
      "åıĪ": 4247,
      "èĤĮ": 4248,
      "çºª": 4249,
      "side": 4250,
      "æĭħ": 4251,
      "æ¹¿": 4252,
      "åįĬ": 4253,
      "é¡º": 4254,
      "Ġrestaurant": 4255,
      "Ġvide": 4256,
      "Ġproblem": 4257,
      "azing": 4258,
      "Ġmembers": 4259,
      "Ġnut": 4260,
      "Ġcou": 4261,
      "æµª": 4262,
      "Ġhelping": 4263,
      "æıĲåįĩ": 4264,
      "ĠĠĠĠĠĠ": 4265,
      "Ġsho": 4266,
      "ng": 4267,
      "Ġrelev": 4268,
      "Ġarg": 4269,
      "Ġbalance": 4270,
      "illed": 4271,
      "æĺ¯ä»Ģä¹Ī": 4272,
      "åĬĽéĩı": 4273,
      "ired": 4274,
      "Ġperfect": 4275,
      "å¤ľ": 4276,
      "åı¯æĮģç»Ń": 4277,
      "ification": 4278,
      "æ¶ī": 4279,
      "Ġwildlife": 4280,
      "**": 4281,
      "ane": 4282,
      "Ġrelated": 4283,
      "å®¤åĨħ": 4284,
      "åºľ": 4285,
      "äº«åıĹ": 4286,
      "ours": 4287,
      "è·ĳ": 4288,
      "åķĨä¸ļ": 4289,
      "aching": 4290,
      "Ġnow": 4291,
      "Ġrecognition": 4292,
      "elt": 4293,
      "Ġorder": 4294,
      "å¹³åĿĩ": 4295,
      "ä¸´": 4296,
      "ĠWith": 4297,
      "çĤ¼": 4298,
      "Ġgoing": 4299,
      "åĳ¼åĲ¸": 4300,
      "Ġsoftware": 4301,
      "Ġremot": 4302,
      "èĳĹåĲį": 4303,
      "å¹¸ç¦ı": 4304,
      "Ġenhance": 4305,
      "èĻļ": 4306,
      "Ġç¼ĸåĨĻ": 4307,
      "Ġthreat": 4308,
      "Ġdest": 4309,
      "åĿĩåĮĢ": 4310,
      "Ġacad": 4311,
      "åºĶå¯¹": 4312,
      "çľĭåĪ°": 4313,
      "cast": 4314,
      "Ġvery": 4315,
      "è¾Ĩ": 4316,
      "ificial": 4317,
      "åĮºåŁŁ": 4318,
      "¹ģ": 4319,
      "æĪ¿éĹ´": 4320,
      "ook": 4321,
      "æıĲä¾ĽäºĨ": 4322,
      "Ġmotiv": 4323,
      "Ġaccessible": 4324,
      "Ġhy": 4325,
      "åĨ³å®ļ": 4326,
      "å®Ī": 4327,
      "Ġflo": 4328,
      "ging": 4329,
      "ug": 4330,
      "Ġinformed": 4331,
      "åĵģè´¨": 4332,
      "çļĦçŁ": 4333,
      "aves": 4334,
      "arr": 4335,
      "è§ĤçĤ¹": 4336,
      "enge": 4337,
      "è¡ĮåĬ¨": 4338,
      "let": 4339,
      "friend": 4340,
      "ç³ķ": 4341,
      "Ġfurther": 4342,
      "ĠEns": 4343,
      "ç§ģ": 4344,
      "Ġado": 4345,
      "Ġclean": 4346,
      "çĽ¸åºĶ": 4347,
      "Ġfre": 4348,
      "ĠCons": 4349,
      "pecially": 4350,
      "èĹ": 4351,
      "ĠâĢ": 4352,
      "Ġcapt": 4353,
      "Ġsomeone": 4354,
      "çļĦçľ": 4355,
      "Ġcell": 4356,
      "æĶ¾åľ¨": 4357,
      "æ¬¢è¿İ": 4358,
      "Ġdevices": 4359,
      "çļĦæĸ¹å¼ı": 4360,
      "Ġjobs": 4361,
      "augh": 4362,
      "æľīäºĽ": 4363,
      "åħ¬åħ±": 4364,
      "not": 4365,
      "çļĦçĶŁæ´»": 4366,
      "çľ¼": 4367,
      "çļĦä¿¡æģ¯": 4368,
      "æİĴåºı": 4369,
      "Ġbenefit": 4370,
      "rect": 4371,
      "å¤ı": 4372,
      "unte": 4373,
      "ç¬¦åĲĪ": 4374,
      "åĨħéĥ¨": 4375,
      "Ġlooking": 4376,
      "ding": 4377,
      "ä¸Ģä½į": 4378,
      "æĬĺ": 4379,
      "è¾ĳ": 4380,
      "è¿Ļä¸ªéĹ®é¢ĺ": 4381,
      "Ġespecially": 4382,
      "çľł": 4383,
      "âĢĿãĢĤ": 4384,
      "å¥ı": 4385,
      "ray": 4386,
      "è¿ĺåı¯ä»¥": 4387,
      "åĪĽä½ľ": 4388,
      "coming": 4389,
      "Ġmultiple": 4390,
      "éļĲ": 4391,
      "æ³¡": 4392,
      "æłĩåĩĨ": 4393,
      "Ġmil": 4394,
      "éľĢè¦ģæ³¨æĦı": 4395,
      "Ġanxiety": 4396,
      "æĶ¹è¿Ľ": 4397,
      "å±ĭ": 4398,
      "æ±¡æŁĵ": 4399,
      "gest": 4400,
      "ç¼ĸç¨ĭ": 4401,
      "è´¹çĶ¨": 4402,
      "Ġevalu": 4403,
      "Ġliter": 4404,
      "imately": 4405,
      "ograph": 4406,
      "Ġsearch": 4407,
      "16": 4408,
      "enced": 4409,
      "Ġmethods": 4410,
      "Ġsun": 4411,
      "çĥĪ": 4412,
      "æ¨¡å¼ı": 4413,
      "çĬ¶åĨµ": 4414,
      "æĶ¹åĸĦ": 4415,
      "å¤ļæł·": 4416,
      "cer": 4417,
      "å¥ĸ": 4418,
      "Ġsatis": 4419,
      "Ġwebsite": 4420,
      "åĬŀ": 4421,
      "åģ¥èº«": 4422,
      "Ġglobal": 4423,
      "Ġask": 4424,
      "Ġplatforms": 4425,
      "Ġdiseases": 4426,
      "çİ°è±¡": 4427,
      "tics": 4428,
      "æ±ģ": 4429,
      "åĪ¤æĸŃ": 4430,
      "Ġconvers": 4431,
      "Ġrelationship": 4432,
      "è®¾ç½®": 4433,
      "æ³ķå¾ĭ": 4434,
      "Ġmindful": 4435,
      "é¢Ħæµĭ": 4436,
      "overy": 4437,
      "åģľ": 4438,
      "çĶµè§Ĩ": 4439,
      "è§ĦåĪĻ": 4440,
      "Ġgenerate": 4441,
      "aken": 4442,
      "Ġimplementing": 4443,
      "ising": 4444,
      "åıĤåĬł": 4445,
      "æĥħç»ª": 4446,
      "Ġprovided": 4447,
      "æ·±åħ¥": 4448,
      "Ġprogrammed": 4449,
      "An": 4450,
      "Ġrelevant": 4451,
      "çļĦçĥ": 4452,
      "çĸ¾çĹħ": 4453,
      "ĠQ": 4454,
      "åĮ»çĶŁ": 4455,
      "åĪĽå»º": 4456,
      "æĶ¶åħ¥": 4457,
      "ä¼ĳ": 4458,
      "izes": 4459,
      "Ġtransform": 4460,
      "éģµ": 4461,
      "astic": 4462,
      "åĳĪ": 4463,
      "æ¯ıä¸ªäºº": 4464,
      "è¿Ķ": 4465,
      "iet": 4466,
      "Ġvoice": 4467,
      "éĢĶ": 4468,
      "æĶ¾æĿ¾": 4469,
      "åį´": 4470,
      "èĥľ": 4471,
      "Ġstructure": 4472,
      "æĹ¶å°ļ": 4473,
      "Ġå¦Ĥæŀľ": 4474,
      "Ġelse": 4475,
      "duc": 4476,
      "Ġemp": 4477,
      "èģļ": 4478,
      "è´§": 4479,
      "aches": 4480,
      "ç§Ģ": 4481,
      "Ġnight": 4482,
      "Ġprofessionals": 4483,
      "Ġbas": 4484,
      "è´µ": 4485,
      "ĠWrite": 4486,
      "anks": 4487,
      "Ġdiversity": 4488,
      "ites": 4489,
      "dr": 4490,
      "åĽ°éļ¾": 4491,
      "ĥåľ": 4492,
      "åŀĥåľ": 4493,
      "åŀĥåľ¾": 4494,
      "Ġdrug": 4495,
      "ç¢³": 4496,
      "Ġname": 4497,
      "åĮĸçļĦ": 4498,
      "aid": 4499,
      "æľĢå¤§": 4500,
      "æĳĦ": 4501,
      "ĠInt": 4502,
      "ç®ĢåįķçļĦ": 4503,
      "Ġwarm": 4504,
      "Ġdone": 4505,
      "Ġfunction": 4506,
      "asc": 4507,
      "ĠBut": 4508,
      "å¼ºè°ĥ": 4509,
      "Ġdemand": 4510,
      "Ġupd": 4511,
      "Ġvisual": 4512,
      "æŃ£åľ¨": 4513,
      "Ġsimilar": 4514,
      "éĢĴ": 4515,
      "æ¯Ľ": 4516,
      "éĶ»": 4517,
      "ently": 4518,
      "Ġvaluable": 4519,
      "Ġdisaster": 4520,
      "ä¸ĢèĪ¬": 4521,
      "ĠReg": 4522,
      "æ´²": 4523,
      "Ġdiscrimination": 4524,
      "åĨĻä¸Ģç¯ĩ": 4525,
      "Ġgovernment": 4526,
      "Ġprev": 4527,
      "lying": 4528,
      "500": 4529,
      "Ġprepare": 4530,
      "ec": 4531,
      "Ġproblems": 4532,
      "è·³": 4533,
      "Ġprom": 4534,
      "åĨ²": 4535,
      "å®īè£ħ": 4536,
      "éĶ»çĤ¼": 4537,
      "æµĵ": 4538,
      "è¹": 4539,
      "Ġtransl": 4540,
      "åºĶçĶ¨ç¨ĭåºı": 4541,
      "Ġcompet": 4542,
      "åĪĨåĪ«": 4543,
      "ological": 4544,
      "å®¡": 4545,
      "Ġdirect": 4546,
      "åīĤ": 4547,
      "Ġsuggestions": 4548,
      "Ġpaper": 4549,
      "Ġrecognize": 4550,
      "ton": 4551,
      "Ġmitigate": 4552,
      "ĠEar": 4553,
      "è®¨è®º": 4554,
      "äºĴåĬ¨": 4555,
      "Ġamazing": 4556,
      "é¦Ī": 4557,
      "Ġinvolved": 4558,
      "face": 4559,
      "æľīåħ³": 4560,
      "Ġexce": 4561,
      "))": 4562,
      "Ġproductivity": 4563,
      "èŃ": 4564,
      "é¦Ĩ": 4565,
      "Ġsounds": 4566,
      "Ġidentifying": 4567,
      "],": 4568,
      "é¾Ļ": 4569,
      "Ġfit": 4570,
      "Ġcontribute": 4571,
      "ths": 4572,
      "friendly": 4573,
      "ified": 4574,
      "ĠX": 4575,
      "ream": 4576,
      "Ġwrite": 4577,
      "iveness": 4578,
      "itely": 4579,
      "Ġled": 4580,
      "åĿı": 4581,
      "ele": 4582,
      "Ġhistor": 4583,
      "Ġdat": 4584,
      "Ġjourney": 4585,
      "Ġ}": 4586,
      "Ġselect": 4587,
      "æ¼«": 4588,
      "Ġconduct": 4589,
      "ç»ĻæĪĳ": 4590,
      "è¿Ľä¸ĢæŃ¥": 4591,
      "Ġlif": 4592,
      "è£ħä¿®": 4593,
      "äº¬": 4594,
      "Ġnav": 4595,
      "Ġwhole": 4596,
      "ç¹ģ": 4597,
      "åĨľ": 4598,
      "æĶ»": 4599,
      "Ġsec": 4600,
      "Ġbreat": 4601,
      "Ġmiss": 4602,
      "é¾Ħ": 4603,
      "sw": 4604,
      "ĠEm": 4605,
      "tt": 4606,
      "Ġbar": 4607,
      "èģĶç½ĳ": 4608,
      "Ġattract": 4609,
      "æĤ¨åı¯ä»¥": 4610,
      "Ġå½ĵçĦ¶": 4611,
      "åħħåĪĨ": 4612,
      "Ġevol": 4613,
      "æĥ³è¦ģ": 4614,
      "Ġsn": 4615,
      "mosp": 4616,
      "Ġchoose": 4617,
      "view": 4618,
      "Ġarr": 4619,
      "Ġsleep": 4620,
      "ended": 4621,
      "ring": 4622,
      "æŀ¶": 4623,
      "Ġvehicles": 4624,
      "Ġfresh": 4625,
      "Ġorganization": 4626,
      "ĠPerson": 4627,
      "æ±¤": 4628,
      "Ġcontext": 4629,
      "åı¦å¤ĸ": 4630,
      "Ġocean": 4631,
      "æĦŁåıĹ": 4632,
      "Ġpollution": 4633,
      "urb": 4634,
      "æī§è¡Į": 4635,
      "ĠHealth": 4636,
      "ä¼ĺçĤ¹": 4637,
      "Ġattention": 4638,
      "æľīçĿĢ": 4639,
      "é£ŁæĿĲ": 4640,
      "Ġä½ł": 4641,
      "Ġerr": 4642,
      "çļĦæĿ¥": 4643,
      "çļĦçĪ": 4644,
      "èŃ¦": 4645,
      "è·Ł": 4646,
      "æĹħè¡Į": 4647,
      "èĴľ": 4648,
      "çļĦæĢĿ": 4649,
      "Ġchatbot": 4650,
      "çļĦéľĢæ±Ĥ": 4651,
      "çķ¥": 4652,
      "è¿Ļæ®µ": 4653,
      "çļĦå»ºè®®": 4654,
      "Ġfeeling": 4655,
      "Ġimplemented": 4656,
      "ç¤¾åĮº": 4657,
      "ĠName": 4658,
      "æĲħ": 4659,
      "éĹ»": 4660,
      "åıįé¦Ī": 4661,
      "çĽ´æİ¥": 4662,
      "æĺ¥": 4663,
      "itable": 4664,
      "åį±": 4665,
      "ĠSu": 4666,
      "èī¯å¥½": 4667,
      "Ġliving": 4668,
      "æĪĳä¼ļ": 4669,
      "åıĺéĩı": 4670,
      "Ġcomplete": 4671,
      "One": 4672,
      "Ġtrends": 4673,
      "Ġmakes": 4674,
      "ä»Ĭå¤©": 4675,
      "Ġdistribut": 4676,
      "Ġcommit": 4677,
      "ĠYour": 4678,
      "Ġatmosp": 4679,
      "ä¼´": 4680,
      "Ġsensors": 4681,
      "Ġsw": 4682,
      "æĹłè®º": 4683,
      "omen": 4684,
      "æĶ¿åºľ": 4685,
      "Ġturn": 4686,
      "Ġchallenge": 4687,
      "çĲĨè®º": 4688,
      "ç»ıåħ¸": 4689,
      "par": 4690,
      "emember": 4691,
      "é¥Ń": 4692,
      "æĸ¹ä¾¿": 4693,
      "Ġcu": 4694,
      "Ġvalue": 4695,
      "Ġfund": 4696,
      "pose": 4697,
      "è°ĥæŁ¥": 4698,
      "çĿ¡": 4699,
      "Ġcommunicate": 4700,
      "Ġdisease": 4701,
      "Ġresearc": 4702,
      "Ġlack": 4703,
      "arning": 4704,
      "ĠPark": 4705,
      "çĦ¦": 4706,
      "é«ĺåº¦": 4707,
      "Ġrather": 4708,
      "ĠAut": 4709,
      "å®£": 4710,
      "çĪ¶": 4711,
      "éĺ¶": 4712,
      "è®¢": 4713,
      "çĥ§": 4714,
      "Ġhigher": 4715,
      "Ġsummary": 4716,
      "ĠDes": 4717,
      "Ġele": 4718,
      "çļĦæ³": 4719,
      "isms": 4720,
      "Ġreli": 4721,
      "ä¹Łä¼ļ": 4722,
      "fra": 4723,
      "åĳĬè¯īæĪĳ": 4724,
      "æĬ½": 4725,
      "Ġsituations": 4726,
      "Ġmarine": 4727,
      "inci": 4728,
      "ĠOr": 4729,
      "inal": 4730,
      "Ġdifference": 4731,
      "Ġgain": 4732,
      "æľºåĻ¨äºº": 4733,
      "æµģç¨ĭ": 4734,
      "ç½ĳç«Ļ": 4735,
      "æľ«": 4736,
      "Ġcolor": 4737,
      "ĠEduc": 4738,
      "Ġaspect": 4739,
      "ç½Ĺ": 4740,
      "Ġdeploy": 4741,
      "Ġbeauty": 4742,
      "æĤ£": 4743,
      "ruction": 4744,
      "itut": 4745,
      "æĿŁ": 4746,
      "è®©æĪĳä»¬": 4747,
      "éķ¿åº¦": 4748,
      "ules": 4749,
      "ĠChat": 4750,
      "æ¶īåıĬ": 4751,
      "Ġdigital": 4752,
      "Ġexisting": 4753,
      "\\_\\_": 4754,
      "Ġ12": 4755,
      "Ġbackground": 4756,
      "çĹĩ": 4757,
      "æ¯ıå¤©": 4758,
      "Ġcontinu": 4759,
      "python": 4760,
      "Ġfarmers": 4761,
      "Ġgiven": 4762,
      "alized": 4763,
      "\":": 4764,
      "å°ıæĹ¶": 4765,
      "Ġmoment": 4766,
      "éĿ¢å¯¹": 4767,
      "Ġintro": 4768,
      "Ġtherapy": 4769,
      "Ġz": 4770,
      "è¿ĶåĽŀ": 4771,
      "å¹¶åľ¨": 4772,
      "Ġafford": 4773,
      "ä¸Ŀ": 4774,
      "å®½": 4775,
      "ĠÃ": 4776,
      "ĠNational": 4777,
      "èĥ¡": 4778,
      "ĠSc": 4779,
      "Ġexercise": 4780,
      "æĲħæĭĮ": 4781,
      "æĶ¯ä»ĺ": 4782,
      "éĺ³åħī": 4783,
      "è¯ļ": 4784,
      "Ġsect": 4785,
      "å¢ŀéķ¿": 4786,
      "Ġwa": 4787,
      "ç¾İä¸½": 4788,
      "ä»¥ä¸ĭæĺ¯ä¸ĢäºĽ": 4789,
      "èĽĭç³ķ": 4790,
      "Ġill": 4791,
      "æ¸ħæĻ": 4792,
      "etry": 4793,
      "æ¢¦": 4794,
      "ç¾İåĽ½": 4795,
      "ä»į": 4796,
      "oney": 4797,
      "Ġecosystems": 4798,
      "æĮĩå¯¼": 4799,
      "99": 4800,
      "æŁĶ": 4801,
      "pped": 4802,
      "def": 4803,
      "Ġlimit": 4804,
      "çİī": 4805,
      "Ġacademic": 4806,
      "Ġrestaurants": 4807,
      "Ġhead": 4808,
      "ä¿¡ä»»": 4809,
      "asters": 4810,
      "å²ģ": 4811,
      "akers": 4812,
      "14": 4813,
      "æł¡": 4814,
      "é«ĺæķĪ": 4815,
      "phas": 4816,
      "yn": 4817,
      "ç¨ĭåº¦": 4818,
      "è¾£": 4819,
      "ä¸ĬéĿ¢": 4820,
      "å®¶å±ħ": 4821,
      "ç¾İé£Ł": 4822,
      "term": 4823,
      "Ġovers": 4824,
      "å®ĺ": 4825,
      "Ġindic": 4826,
      "å½¢è±¡": 4827,
      "è´¡": 4828,
      "åºĬ": 4829,
      "agra": 4830,
      "çľŁæŃ£": 4831,
      "oint": 4832,
      "ids": 4833,
      "arent": 4834,
      "ĠTrans": 4835,
      "éĵ¶": 4836,
      "èģĬ": 4837,
      "Ġregular": 4838,
      "ä¼ĺç§Ģ": 4839,
      "Ġcolle": 4840,
      "çĸĳ": 4841,
      "Ġsubject": 4842,
      "Ġgreater": 4843,
      "Ġimag": 4844,
      "Ġstore": 4845,
      "Ġansw": 4846,
      "åŁ¹è®Ń": 4847,
      "Ġspot": 4848,
      "ä½Ļ": 4849,
      "åĪĨåŃĲ": 4850,
      "Ġaudience": 4851,
      "pet": 4852,
      "Ġvers": 4853,
      "Ġtrail": 4854,
      "åĭĩ": 4855,
      "erous": 4856,
      "Ġguidance": 4857,
      "Ġspeech": 4858,
      "æĺ¯çĶ±": 4859,
      "åĵ²": 4860,
      "è´¡çĮ®": 4861,
      "åĲĪéĢĤçļĦ": 4862,
      "è®¾æĸ½": 4863,
      "ä»ĸäºº": 4864,
      "ensive": 4865,
      "åĢ¾": 4866,
      "aling": 4867,
      "Ġprojects": 4868,
      "St": 4869,
      "å³": 4870,
      "Ġtakes": 4871,
      "ç»©": 4872,
      "ĠTra": 4873,
      "Ġbro": 4874,
      "ĠInc": 4875,
      "ived": 4876,
      "Ġ&": 4877,
      "åĿĲ": 4878,
      "placement": 4879,
      "è¿ŀæİ¥": 4880,
      "çļĦç¤¾": 4881,
      "Ġrelax": 4882,
      "ufact": 4883,
      "éģį": 4884,
      "Ġsurv": 4885,
      "åı£åĳ³": 4886,
      "Ġcreativity": 4887,
      "of": 4888,
      "å¨ģ": 4889,
      "çļĦçł": 4890,
      "Ġdescrib": 4891,
      "Ġbreath": 4892,
      "Ġplaces": 4893,
      "èĭ±è¯Ń": 4894,
      "Ġdamage": 4895,
      "oration": 4896,
      "ift": 4897,
      "Ġcase": 4898,
      "å¹´é¾Ħ": 4899,
      "Ġpress": 4900,
      "çĶľ": 4901,
      "éĩİ": 4902,
      "æĹħæ¸¸": 4903,
      "Ġtaken": 4904,
      "ined": 4905,
      "Ġconcept": 4906,
      "æĴŃ": 4907,
      "Ġinteresting": 4908,
      "è·µ": 4909,
      "Ġfoot": 4910,
      "Ġsea": 4911,
      "ä¸ºæĤ¨": 4912,
      "60": 4913,
      "Ġresearchers": 4914,
      "éĢģ": 4915,
      "Ġwee": 4916,
      ");": 4917,
      "çļĦåħ³éĶ®": 4918,
      "ä¼½": 4919,
      "elebr": 4920,
      "å¡ĳ": 4921,
      "ç»ıå¸¸": 4922,
      "Ġpopulations": 4923,
      "åħ¬å¼ı": 4924,
      "orn": 4925,
      "çĩĥ": 4926,
      "äººçĶŁ": 4927,
      "17": 4928,
      "æİ¥åıĹ": 4929,
      "Ġlocation": 4930,
      "As": 4931,
      "Ġinequ": 4932,
      "Ġintervent": 4933,
      "Ġinterested": 4934,
      "çļĦå·¥ä½ľ": 4935,
      "Ġdefinitely": 4936,
      "Ġassistance": 4937,
      "è¿Ļä¸Ģ": 4938,
      "åĲĪåĲĮ": 4939,
      "ä¼ĺåĬ¿": 4940,
      "Ġmov": 4941,
      "200": 4942,
      "åģı": 4943,
      "åŃĺåĤ¨": 4944,
      "usive": 4945,
      "æĹı": 4946,
      "ï¼īï¼Į": 4947,
      "Ġgas": 4948,
      "Ġinterests": 4949,
      "æ¸ħæĻ°": 4950,
      "Ġgard": 4951,
      "çĸ«": 4952,
      "Ġsay": 4953,
      "å¤«": 4954,
      "ges": 4955,
      "èĲ¨": 4956,
      "ä¸ļåĬ¡": 4957,
      "Ġbig": 4958,
      "ä¸ªæĢ§": 4959,
      "åĲ¯": 4960,
      "Ġengagement": 4961,
      "éľĢè¦ģèĢĥèĻĳ": 4962,
      "Ġprinci": 4963,
      "åĳ¨åĽ´": 4964,
      "Ġopportunity": 4965,
      "Ġhappy": 4966,
      "çģ¾": 4967,
      "èĹı": 4968,
      "rel": 4969,
      "ç¼ºçĤ¹": 4970,
      "åĴĮåħ¶ä»ĸ": 4971,
      "ava": 4972,
      "Ġestablish": 4973,
      "é¸¡èĽĭ": 4974,
      "iking": 4975,
      "rastructure": 4976,
      "forest": 4977,
      "èİ·åıĸ": 4978,
      "èĦļ": 4979,
      "inally": 4980,
      "èµı": 4981,
      "Ġdelicious": 4982,
      "Ġresults": 4983,
      "è§Ĥå¯Ł": 4984,
      "Ġlast": 4985,
      "å®ŀè·µ": 4986,
      "Ġpolit": 4987,
      "æĢ§èĥ½": 4988,
      "bi": 4989,
      "çĽ¸ä¿¡": 4990,
      "ffee": 4991,
      "Ġphr": 4992,
      "ĠInst": 4993,
      "Ġforest": 4994,
      "elling": 4995,
      "atic": 4996,
      "æµģè¡Į": 4997,
      "John": 4998,
      "å¤§å®¶": 4999,
      "æķ°åŃ¦": 5000,
      "æī©": 5001,
      "å®Įåħ¨": 5002,
      "å¼ķèµ·": 5003,
      "ese": 5004,
      "è½¬æį¢": 5005,
      "Ġaffected": 5006,
      "Ġrobotics": 5007,
      "ç»¼ä¸Ĭ": 5008,
      "Ġprop": 5009,
      "è®©äºº": 5010,
      "æ²³": 5011,
      "ä¸ŃæľĢ": 5012,
      "Ġautonomous": 5013,
      "Ġhaving": 5014,
      "Ġtrip": 5015,
      "ury": 5016,
      "Ġbiased": 5017,
      "Ġconsiderations": 5018,
      "Ġparticular": 5019,
      "åįł": 5020,
      "æİ¨å¹¿": 5021,
      "Ġinitiatives": 5022,
      "ials": 5023,
      "åĳ³éģĵ": 5024,
      "Ġtreatments": 5025,
      "For": 5026,
      "Ġemphas": 5027,
      "çĭ¬çī¹çļĦ": 5028,
      "Ġlay": 5029,
      "æĶ¿çŃĸ": 5030,
      "æĢİä¹Ī": 5031,
      "ronic": 5032,
      "play": 5033,
      "Ġcook": 5034,
      "ĠçĶŁæĪĲ": 5035,
      "è¿Ľåħ¥": 5036,
      "ĠSoc": 5037,
      "è½®": 5038,
      "ĠMon": 5039,
      "Ġvolunte": 5040,
      "Ġrain": 5041,
      "Ġconsumption": 5042,
      "èĽĭçĻ½": 5043,
      "å£¤": 5044,
      "Ġroutine": 5045,
      "è¯·éĹ®": 5046,
      "Ġimproved": 5047,
      "äººçī©": 5048,
      "è¯»èĢħ": 5049,
      "Ġgoal": 5050,
      "å¹¿åĳĬ": 5051,
      "éķ¿æľŁ": 5052,
      "Ġey": 5053,
      "Ġoutdo": 5054,
      "Ġcuis": 5055,
      "Ġaway": 5056,
      "Ġbooks": 5057,
      "Ġtopic": 5058,
      "å¤§åĪ©": 5059,
      "house": 5060,
      "Ġones": 5061,
      "ç§Ł": 5062,
      "We": 5063,
      "':": 5064,
      "æĪ¿å±ĭ": 5065,
      "ç§»åĬ¨": 5066,
      "Ġdisasters": 5067,
      "ests": 5068,
      "illing": 5069,
      "ç»¿èī²": 5070,
      "åĵ²åŃ¦": 5071,
      "æĪĲåĪĨ": 5072,
      "Ġoccur": 5073,
      "ĠThank": 5074,
      "ľä¼½": 5075,
      "åľŁå£¤": 5076,
      "çļĦä¸»è¦ģ": 5077,
      "Ġanimal": 5078,
      "To": 5079,
      "çİ°å®ŀ": 5080,
      "é¢Ĩå¯¼": 5081,
      "Ġviews": 5082,
      "éĤ®": 5083,
      "æ°§åĮĸ": 5084,
      "athy": 5085,
      "ĠPr": 5086,
      "éģĵå¾·": 5087,
      "ç¤¾äº¤åªĴä½ĵ": 5088,
      "Ġwhy": 5089,
      "ĽåĽ´": 5090,
      "Ġpurch": 5091,
      "Ġcountry": 5092,
      "Ġremind": 5093,
      "å¯¸": 5094,
      "Ġrights": 5095,
      "çļĦçİ¯å¢ĥ": 5096,
      "Ġline": 5097,
      "Ġnext": 5098,
      "ibr": 5099,
      "é©¾": 5100,
      "Ġmaj": 5101,
      "Ġovercome": 5102,
      "æīĢè¿°": 5103,
      "è§Ħå®ļ": 5104,
      "Ġinteractions": 5105,
      "Ġconflic": 5106,
      "ç³»åĪĹ": 5107,
      "å°¼": 5108,
      "ibly": 5109,
      "çīĽå¥¶": 5110,
      "Ġresponses": 5111,
      "ann": 5112,
      "ses": 5113,
      "åŃ¦ä¼ļ": 5114,
      "bol": 5115,
      "Ġstandards": 5116,
      "ulner": 5117,
      "ĠMany": 5118,
      "å¯¹è¯ĿåĨħå®¹": 5119,
      "lished": 5120,
      "çļĦæĢ§": 5121,
      "çĶŁæĢģç³»ç»Ł": 5122,
      "æĥħåĨµä¸ĭ": 5123,
      "å¯»æ±Ĥ": 5124,
      "Ġhold": 5125,
      "den": 5126,
      "Ġmention": 5127,
      "åįĥ": 5128,
      "çĽ´åĪ°": 5129,
      "éģĹ": 5130,
      "Ġbelieve": 5131,
      "aries": 5132,
      "æľīä¸Ģä¸ª": 5133,
      "hel": 5134,
      "13": 5135,
      "Ġmor": 5136,
      "Ġatmosphere": 5137,
      "æĹ¥æľŁ": 5138,
      "ä¹ħ": 5139,
      "Ġaddressing": 5140,
      "ĠâĢĵ": 5141,
      "çļĦåľ°æĸ¹": 5142,
      "ming": 5143,
      "Ġcannot": 5144,
      "Ġmanufact": 5145,
      "Ġpie": 5146,
      "icing": 5147,
      "Ġæııè¿°": 5148,
      "Ġstudies": 5149,
      "ĠAmerican": 5150,
      "ç¾İåĳ³": 5151,
      "ĠNLP": 5152,
      "Ġaccording": 5153,
      "mselves": 5154,
      "èĦĤ": 5155,
      "It": 5156,
      "èĩªä¿¡": 5157,
      "æīĢéľĢ": 5158,
      "Ġthemselves": 5159,
      "Ġremote": 5160,
      "åŁ¹åħ»": 5161,
      "å®īæİĴ": 5162,
      "Ġregard": 5163,
      "iring": 5164,
      "è¯ĨåĪ«": 5165,
      "Ġarticle": 5166,
      "æģĴ": 5167,
      "æĢ»çļĦæĿ¥": 5168,
      "Ġalign": 5169,
      "æ±ł": 5170,
      "tenance": 5171,
      "faction": 5172,
      "åĬ¨ä½ľ": 5173,
      "çļĦç©": 5174,
      "ç¼©": 5175,
      "Ġ100": 5176,
      "æĢ¥": 5177,
      "Ġì": 5178,
      "Ġtesting": 5179,
      "åŃĹæ¯į": 5180,
      "å¹´è½»": 5181,
      "Ġswe": 5182,
      "åĪ¶éĢł": 5183,
      "å°º": 5184,
      "hens": 5185,
      "æ°´æŀľ": 5186,
      "Ġinfrastructure": 5187,
      "èī²å½©": 5188,
      "æĢ»çļĦæĿ¥è¯´": 5189,
      "æľīä»Ģä¹Ī": 5190,
      "è½¦è¾Ĩ": 5191,
      "text": 5192,
      "Ġpay": 5193,
      "rop": 5194,
      "ĊĠĠ": 5195,
      "Ġcorrect": 5196,
      "ĠProv": 5197,
      "Ġcaused": 5198,
      "ĠRed": 5199,
      "èĥŀ": 5200,
      "ĠMed": 5201,
      "ç²¾ç¥ŀ": 5202,
      "ĠData": 5203,
      "æ°ĶåĢĻåıĺåĮĸ": 5204,
      "äºĴèģĶç½ĳ": 5205,
      "Ġengage": 5206,
      "åĪĨä¸º": 5207,
      "Ġfull": 5208,
      "enc": 5209,
      "éĩįæĸ°": 5210,
      "æŃ£ç¡®çļĦ": 5211,
      "çļĦæ°Ķ": 5212,
      "åıĮæĸ¹": 5213,
      "Ġcomes": 5214,
      "åı¤ä»£": 5215,
      "æŁĲäºĽ": 5216,
      "Ġtoday": 5217,
      "åĳĪçİ°": 5218,
      "aged": 5219,
      "æĹ¥å¸¸": 5220,
      "Ġ\\": 5221,
      "æ»ĳ": 5222,
      "Ġclin": 5223,
      "Ġobs": 5224,
      "ä½łéľĢè¦ģ": 5225,
      "Ġexcell": 5226,
      "Ġartificial": 5227,
      "æĪĳåı¯ä»¥": 5228,
      "çļĦç¬": 5229,
      "alls": 5230,
      "Ġproduce": 5231,
      "oss": 5232,
      "Ġdraw": 5233,
      "è¹Ī": 5234,
      "Ġadvice": 5235,
      "Ġletter": 5236,
      "Ġhighly": 5237,
      "çĬ¯": 5238,
      "ç»¼ä¸ĬæīĢè¿°": 5239,
      "æ»¡æĦı": 5240,
      "Ġprinciples": 5241,
      "èĮĦ": 5242,
      "Ġfeelings": 5243,
      "çļĦæ´": 5244,
      "Ġhom": 5245,
      "Ġfail": 5246,
      "Ġcrop": 5247,
      "å§ľ": 5248,
      "Ġquestion": 5249,
      "Ġdisabilities": 5250,
      "èĪŀè¹Ī": 5251,
      "Ġimplications": 5252,
      "Ġsing": 5253,
      "40": 5254,
      "Ġfamil": 5255,
      "Ġgovernments": 5256,
      "Ġrecord": 5257,
      "å½¢çĬ¶": 5258,
      "Ġbegin": 5259,
      "ises": 5260,
      "çļĦæĥ³": 5261,
      "achine": 5262,
      "è°±": 5263,
      "Ġvulner": 5264,
      "Ġproper": 5265,
      "Ġoversight": 5266,
      "è´ŁéĿ¢": 5267,
      "Ġemail": 5268,
      "Ġnews": 5269,
      "Ġexploring": 5270,
      "Ġfavor": 5271,
      "æ¥¼": 5272,
      "å®ľ": 5273,
      "Ġunivers": 5274,
      "å·®å¼Ĥ": 5275,
      "ï¼īãĢĤ": 5276,
      "è§£åĨ³éĹ®é¢ĺ": 5277,
      "Ġfamous": 5278,
      "gn": 5279,
      "Ġmessage": 5280,
      "Ġcra": 5281,
      "atitude": 5282,
      "Ġcover": 5283,
      "æ·±åĪ»": 5284,
      "åı¯ä»¥éĢīæĭ©": 5285,
      "çĶŁæ´»ä¸Ń": 5286,
      "Ġsmart": 5287,
      "ç§įç±»": 5288,
      "onstr": 5289,
      "ĠSm": 5290,
      "vey": 5291,
      "çĶ²": 5292,
      "Ġregularly": 5293,
      "æĦŁè§ī": 5294,
      "Ġthought": 5295,
      "Ġexh": 5296,
      "ç§°ä¸º": 5297,
      "ç»ĺ": 5298,
      "Ġold": 5299,
      "è®¤è¯Ĩ": 5300,
      "æĦī": 5301,
      "Ġfields": 5302,
      "ĠSp": 5303,
      "Ġconsist": 5304,
      "ãģ": 5305,
      "ç»Ĩèĥŀ": 5306,
      "Ġhours": 5307,
      "80": 5308,
      "alking": 5309,
      "è§īå¾Ĺ": 5310,
      "ĠEnglish": 5311,
      "ç»Ŀ": 5312,
      "Ġsignificantly": 5313,
      "Ġsource": 5314,
      "Ġant": 5315,
      "Ġeducational": 5316,
      "Ġtask": 5317,
      "Ġhandle": 5318,
      "æĲľ": 5319,
      "Ġcalled": 5320,
      "Ġterms": 5321,
      "æ²ī": 5322,
      "Ġwin": 5323,
      "Ġmodern": 5324,
      "duction": 5325,
      "Ġcuisine": 5326,
      "å¥Ĺ": 5327,
      "è§¦": 5328,
      "olutely": 5329,
      "ç«¥": 5330,
      "pite": 5331,
      "Ġfelt": 5332,
      "Ġwond": 5333,
      "Ġcompre": 5334,
      "è¿Ĳè¡Į": 5335,
      "Ġresil": 5336,
      "çĽ¸ä¼¼": 5337,
      "éĩĳèŀį": 5338,
      "çĪ±æĥħ": 5339,
      "ç¬Ķ": 5340,
      "èĪª": 5341,
      "è°Ī": 5342,
      "åĬĽçļĦ": 5343,
      "æľīæīĢ": 5344,
      "æ½ľ": 5345,
      "ulate": 5346,
      "Ġdetection": 5347,
      "å®£ä¼ł": 5348,
      "ä½łä»¬": 5349,
      "Ġmatter": 5350,
      "éĩıåŃĲ": 5351,
      "ç»ĵåĲĪ": 5352,
      "ĠTake": 5353,
      "ç»ıè¿ĩ": 5354,
      "Ġdevelopers": 5355,
      "èª": 5356,
      "Ġ---": 5357,
      "äººéĻħ": 5358,
      "çŃ¾": 5359,
      "ï¼ļâĢľ": 5360,
      "Ġinnovative": 5361,
      "ãĢĤâĢĿ": 5362,
      "å½¼": 5363,
      "é¥¼": 5364,
      "è¿ĩåº¦": 5365,
      "Ġplanet": 5366,
      "åħ°": 5367,
      "ĠCompan": 5368,
      "å¸ģ": 5369,
      "æķ¬": 5370,
      "Ġlot": 5371,
      "Ġä»¥ä¸ĭ": 5372,
      "çļĦæĸĩç«ł": 5373,
      "æĪĲä¸ºäºĨ": 5374,
      "iate": 5375,
      "Ġmis": 5376,
      "åģĩè®¾": 5377,
      "Ġdoc": 5378,
      "Ġcareful": 5379,
      "Ġever": 5380,
      "æĪĳä»¬å°Ĩ": 5381,
      "ä¾ĭåŃĲ": 5382,
      "ä¹³": 5383,
      "Ġput": 5384,
      "ä½ľèĢħ": 5385,
      "Ġremember": 5386,
      "åĲ§": 5387,
      "ĠJohn": 5388,
      "æļ´": 5389,
      "çĽ®çļĦ": 5390,
      "å¸¸è§ģçļĦ": 5391,
      "Ġfest": 5392,
      "å»ºè®¾": 5393,
      "å®ŀçĶ¨": 5394,
      "Ġactive": 5395,
      "çªĹ": 5396,
      "Ġlegal": 5397,
      "ĠAre": 5398,
      "ĠThanks": 5399,
      "åİŁçĲĨ": 5400,
      "Ġtrying": 5401,
      "è¿·": 5402,
      "outh": 5403,
      "çĽ¸åĲĮ": 5404,
      "éħĴåºĹ": 5405,
      "æľĢä½³": 5406,
      "Ġanalytics": 5407,
      "Ġperpet": 5408,
      "ipment": 5409,
      "è§Ĥä¼Ĺ": 5410,
      "Ġcelebr": 5411,
      "Ġheav": 5412,
      "Ġmeditation": 5413,
      "å¤§æ°Ķ": 5414,
      "Another": 5415,
      "ä¸įéĶĻ": 5416,
      "Ġwhether": 5417,
      "Ġdemonstr": 5418,
      "set": 5419,
      "ä¸Ģæ¬¾": 5420,
      "æĶ¶éĽĨ": 5421,
      "éĻĲåĪ¶": 5422,
      "Ġing": 5423,
      "Ġrevolution": 5424,
      "çľģ": 5425,
      "Ġscience": 5426,
      "çĽ®åīį": 5427,
      "Ġthinking": 5428,
      "±ä¹Ĳ": 5429,
      "è¯¾ç¨ĭ": 5430,
      "Ġpack": 5431,
      "Ġimage": 5432,
      "loc": 5433,
      "uck": 5434,
      "Ġstories": 5435,
      "Ġsatisfaction": 5436,
      "Ġcollection": 5437,
      "èµŀ": 5438,
      "éĿ¢ä¸´": 5439,
      "Ġla": 5440,
      "Ġsymbol": 5441,
      "ĠAcc": 5442,
      "Ġemb": 5443,
      "Ġhabitats": 5444,
      "Ġlower": 5445,
      "Ġcontinues": 5446,
      "éľĩ": 5447,
      "åĵĪ": 5448,
      "Ġenvironments": 5449,
      "Ġenc": 5450,
      "ĠHum": 5451,
      "Ġthree": 5452,
      "æĦıåĳ³": 5453,
      "åİ¨": 5454,
      "chan": 5455,
      "Ġtrue": 5456,
      "åĪĩæĪĲ": 5457,
      "sing": 5458,
      "âĢĶâĢĶ": 5459,
      "åĩºæĿ¥": 5460,
      "Ġregion": 5461,
      "Ġinterpre": 5462,
      "Ġrun": 5463,
      "Ġdiagnosis": 5464,
      "éŀ": 5465,
      "Ġcoffee": 5466,
      "Ġdoing": 5467,
      "Ġmajor": 5468,
      "Ġmindfulness": 5469,
      "Ġdetailed": 5470,
      "Ġaffordable": 5471,
      "çĻ¾": 5472,
      "ĠMy": 5473,
      "éĿŀå¸¸éĩįè¦ģçļĦ": 5474,
      "çļĦæ²ŁéĢļ": 5475,
      "çļĦæķħ": 5476,
      "åĢĴåħ¥": 5477,
      "Ġthemes": 5478,
      "Ġnetwork": 5479,
      "sh": 5480,
      "ï¼īï¼ļ": 5481,
      "ĠUnited": 5482,
      "çļĦæĮĩ": 5483,
      "orts": 5484,
      "åį«çĶŁ": 5485,
      "Ġplanning": 5486,
      "And": 5487,
      "æĥł": 5488,
      "åīª": 5489,
      "çļĦåºĶçĶ¨": 5490,
      "ĠComm": 5491,
      "Ġperi": 5492,
      "Ġaccountable": 5493,
      "çīĻ": 5494,
      "çļĦçģ": 5495,
      "Ġchoice": 5496,
      "idents": 5497,
      "çļĦå®īåħ¨": 5498,
      "å¹¶ä¸į": 5499,
      "ĠDis": 5500,
      "å¤ªéĺ³ç³»": 5501,
      "Ġreceive": 5502,
      "Ġclose": 5503,
      "çļĦæĹ¶åĢĻ": 5504,
      "Ġchanging": 5505,
      "ä»·åĢ¼è§Ĥ": 5506,
      "Ġperpetu": 5507,
      "Ġseason": 5508,
      "Ġreplace": 5509,
      "Ġmen": 5510,
      "Ġlearned": 5511,
      "è®©æĪĳ": 5512,
      "Ġsituation": 5513,
      "head": 5514,
      "åľ¨ä¸Ģèµ·": 5515,
      "çļĦç©º": 5516,
      "éľ²": 5517,
      "ĠOn": 5518,
      "ä¸ºä»Ģä¹Ī": 5519,
      "Ġenough": 5520,
      "å±ķçİ°": 5521,
      "Ġleaders": 5522,
      "ancing": 5523,
      "Ġ30": 5524,
      "Ġtemperature": 5525,
      "åı«": 5526,
      "æĦıåĳ³çĿĢ": 5527,
      "æ±ĩ": 5528,
      "ĠGovern": 5529,
      "Wh": 5530,
      "Ġfocused": 5531,
      "ĠWor": 5532,
      "uro": 5533,
      "Ġsimple": 5534,
      "Ġhiking": 5535,
      "æ¯Ĵ": 5536,
      "Ġcomprehens": 5537,
      "äºĪ": 5538,
      "Ġcreated": 5539,
      "é¡µ": 5540,
      "cond": 5541,
      "è¯ģæį®": 5542,
      "çļĦè®¾è®¡": 5543,
      "Ġworkplace": 5544,
      "Ġcharacters": 5545,
      "Ġmechan": 5546,
      "Ġpath": 5547,
      "ç¥ŀç§ĺ": 5548,
      "å·ŀ": 5549,
      "</": 5550,
      "ç§įæ¤į": 5551,
      "Ġlimited": 5552,
      "Ġsolar": 5553,
      "çļĦæı": 5554,
      "Ġappreciate": 5555,
      "å¿«ä¹Ĳ": 5556,
      "22": 5557,
      "æĦŁåıĹåĪ°": 5558,
      "èĢĹ": 5559,
      "med": 5560,
      "icine": 5561,
      "Ġnote": 5562,
      "å½ĵåīį": 5563,
      "æĪĳä»¬åºĶè¯¥": 5564,
      "Ġseen": 5565,
      "ä¸ĢåĲį": 5566,
      "å°½åı¯èĥ½": 5567,
      "è¿Ĳç®Ĺ": 5568,
      "è§Ĵåº¦": 5569,
      "Ġequipment": 5570,
      "Ġspread": 5571,
      "è¸": 5572,
      "è®¿": 5573,
      "åı¥è¯Ŀ": 5574,
      "æĮ¥": 5575,
      "Ġpurpose": 5576,
      "arian": 5577,
      "ä»ª": 5578,
      "Ġperspectives": 5579,
      "ĠPredict": 5580,
      "åĩºäºĨ": 5581,
      "Ġæĺ¯": 5582,
      "Ġyoung": 5583,
      "å©ļç¤¼": 5584,
      "Ġexcellent": 5585,
      "ĠEnsuring": 5586,
      "Ġreach": 5587,
      "éĺ¶æ®µ": 5588,
      "ä¿Ŀéļľ": 5589,
      "Ġempathy": 5590,
      "çĳľä¼½": 5591,
      "Ġver": 5592,
      "abel": 5593,
      "Ġmaintenance": 5594,
      "è¯Ħä»·": 5595,
      "Ġult": 5596,
      "åĴ¨": 5597,
      "ox": 5598,
      "åĴ¨è¯¢": 5599,
      "Ġshared": 5600,
      "ina": 5601,
      "Ġoutdoor": 5602,
      "Ġthoughts": 5603,
      "inating": 5604,
      "éĴ±": 5605,
      "Ġframe": 5606,
      "éĺ¿": 5607,
      "åĪ©æ¶¦": 5608,
      "çļĦæİ¨": 5609,
      "åįļ": 5610,
      "Ġaltern": 5611,
      "Ġrecent": 5612,
      "ared": 5613,
      "list": 5614,
      "Ġroad": 5615,
      "äºĭé¡¹": 5616,
      "ged": 5617,
      "ynt": 5618,
      "==": 5619,
      "Ġspend": 5620,
      "ç½ª": 5621,
      "åıĸå¾Ĺ": 5622,
      "ĠSo": 5623,
      "é¹": 5624,
      "ä¸¥éĩį": 5625,
      "æĹ¶æľŁ": 5626,
      "ĠEarth": 5627,
      "li": 5628,
      "ral": 5629,
      "å¿Ĩ": 5630,
      "å©´": 5631,
      "æİ¥ä¸ĭæĿ¥": 5632,
      "att": 5633,
      "ĠChatbots": 5634,
      "Ġsetting": 5635,
      "ç¥Ŀ": 5636,
      "Ġreading": 5637,
      "éĶĢåĶ®é¢Ŀ": 5638,
      "ä¼¦": 5639,
      "æİ¢è®¨": 5640,
      "aign": 5641,
      "éŀĭ": 5642,
      "Ġcareer": 5643,
      "Ġteachers": 5644,
      "Ġä½¿çĶ¨": 5645,
      "çļĦè´¨éĩı": 5646,
      "å±ŀäºİ": 5647,
      "Ġeasier": 5648,
      "Ġscientific": 5649,
      "ç¾İåħĥ": 5650,
      "Ġspir": 5651,
      "åĬ³": 5652,
      "çļĦæĶ¯": 5653,
      "èµĦäº§": 5654,
      "çĶŁåŃĺ": 5655,
      "èĩ³å°ĳ": 5656,
      "å§¿": 5657,
      "Ġvideo": 5658,
      "Ġaim": 5659,
      "alities": 5660,
      "å®Ŀå®Ŀ": 5661,
      "çĪ¶æ¯į": 5662,
      "________________": 5663,
      "Ġbud": 5664,
      "Ġstreet": 5665,
      "æĸ¹ç¨ĭ": 5666,
      "ä¸ĸçºª": 5667,
      "earch": 5668,
      "æĴ°": 5669,
      "Ġengine": 5670,
      "ches": 5671,
      "ĠRobots": 5672,
      "Ġdisplacement": 5673,
      "ervised": 5674,
      "é¡¶": 5675,
      "Ġwalk": 5676,
      "oud": 5677,
      "Ġemergency": 5678,
      "èģĺ": 5679,
      "nal": 5680,
      "Ġdatas": 5681,
      "åĢº": 5682,
      "rist": 5683,
      "åĲİçļĦ": 5684,
      "å¾Īå¥½": 5685,
      "Ġmyself": 5686,
      "çļĦæīĭ": 5687,
      "Ġusage": 5688,
      "Ġshown": 5689,
      "æ®Ĭ": 5690,
      "Ġtypically": 5691,
      "uly": 5692,
      "æĸ°éĹ»": 5693,
      "Ġorig": 5694,
      "æĽ¿": 5695,
      "è½»æĿ¾": 5696,
      "æĺ¾ç¤º": 5697,
      "Ġadopt": 5698,
      "èĤ¡ç¥¨": 5699,
      "Ġparent": 5700,
      "aps": 5701,
      "Ġmarketing": 5702,
      "æĢĿæĥ³": 5703,
      "èĻ«": 5704,
      "éĥ¨éĹ¨": 5705,
      "çļĦæķĪ": 5706,
      "Ġcomfortable": 5707,
      "åŃ¦ä¹łåĴĮ": 5708,
      "Ġforecast": 5709,
      "iction": 5710,
      "Ġgetting": 5711,
      "Ġtrees": 5712,
      "aving": 5713,
      "çļĦåŁºç¡Ģ": 5714,
      "ready": 5715,
      "æĸ°é²ľ": 5716,
      "going": 5717,
      "¹é¥": 5718,
      "Ġevidence": 5719,
      "¹é¥ª": 5720,
      "ç§ĭ": 5721,
      "æľīå¾Īå¤ļ": 5722,
      "éĿ¢è¯ķ": 5723,
      "éģĩåĪ°": 5724,
      "ç»Ļå®ļ": 5725,
      "irc": 5726,
      "åı¯ä»¥æł¹æį®": 5727,
      "é©¾é©¶": 5728,
      "Ġstunning": 5729,
      "å·§åħĭ": 5730,
      "çļĦæ¦Ĥ": 5731,
      "æ¡Į": 5732,
      "ulation": 5733,
      "åıĤèĢĥ": 5734,
      "Ġflex": 5735,
      "ĠPh": 5736,
      "çĦ¦èĻĳ": 5737,
      "ymakers": 5738,
      "ĠArt": 5739,
      "Ġforms": 5740,
      "val": 5741,
      "æİ¨åĬ¨": 5742,
      "èħ¿": 5743,
      "çī¹æ®Ĭ": 5744,
      "Ġenab": 5745,
      "å°Ĩä¼ļ": 5746,
      "æĶ¯åĩº": 5747,
      "åĿļæĮģ": 5748,
      "ĠAss": 5749,
      "co": 5750,
      "çº¢èī²": 5751,
      "Ġoption": 5752,
      "Ġstarted": 5753,
      "ration": 5754,
      "Ġpoetry": 5755,
      "Ġport": 5756,
      "gen": 5757,
      "Ġdeliv": 5758,
      "èªī": 5759,
      "çĶļ": 5760,
      "éĢ»": 5761,
      "Ġground": 5762,
      "éĢīé¡¹": 5763,
      "å½¼æŃ¤": 5764,
      "ana": 5765,
      "çļĦæĹ¥": 5766,
      "Ġsecure": 5767,
      "ĠTechn": 5768,
      "åľ¨çº¿": 5769,
      "é¥®æĸĻ": 5770,
      "Ġgratitude": 5771,
      "ç¬¬ä¸ī": 5772,
      "Ġsong": 5773,
      "ĠSocial": 5774,
      "Ġpoints": 5775,
      "ĠWow": 5776,
      "Ġalready": 5777,
      "çļĦçĪ±": 5778,
      "Ġsince": 5779,
      "Ġreality": 5780,
      "çıŃ": 5781,
      "Ġpopulation": 5782,
      "yond": 5783,
      "Ġdog": 5784,
      "bor": 5785,
      "æıĲåıĸ": 5786,
      "Your": 5787,
      "å·¥ç¨ĭ": 5788,
      "äº¤æĺĵ": 5789,
      "aff": 5790,
      "Ġworth": 5791,
      "å¡«": 5792,
      "å¨±ä¹Ĳ": 5793,
      "ç¡¬": 5794,
      "æµ·æ´ĭ": 5795,
      "åĨĴ": 5796,
      "çīĪ": 5797,
      "Ġprogramming": 5798,
      "ĠMachine": 5799,
      "åĢ¼å¾Ĺ": 5800,
      "å£°éŁ³": 5801,
      "Ġexercises": 5802,
      "åħīçº¿": 5803,
      "è¯·è¾ĵåħ¥": 5804,
      "æ³ķåĴĮ": 5805,
      "Ġfeature": 5806,
      "eff": 5807,
      "ĠPar": 5808,
      "è¿ĽæŃ¥": 5809,
      "å¥³æĢ§": 5810,
      "Ġefficiently": 5811,
      "çļĦæĬĢæľ¯": 5812,
      "Ġgenetic": 5813,
      "çļĦäº§åĵģ": 5814,
      "ä»¤äºº": 5815,
      "è´¦": 5816,
      "åİļ": 5817,
      "åĴĮæĸĩåĮĸ": 5818,
      "éĻĦ": 5819,
      "Ġmob": 5820,
      "ç»¼åĲĪ": 5821,
      "æľīä¸Ģ": 5822,
      "å¦Ĩ": 5823,
      "åįĪ": 5824,
      "Ġoutside": 5825,
      "Ġpropert": 5826,
      "éĤ®ä»¶": 5827,
      "ä¸»ä¹ī": 5828,
      "Ġpolicy": 5829,
      "èĩªèº«": 5830,
      "Ġnavigate": 5831,
      "Ġsty": 5832,
      "çĶµèĦĳ": 5833,
      "Ġabilities": 5834,
      "Ġfaced": 5835,
      "çļĦç¼": 5836,
      "çļĦå°ı": 5837,
      "èķ": 5838,
      "è¯·ä½ł": 5839,
      "Ġtone": 5840,
      "igation": 5841,
      "åıĤæķ°": 5842,
      "èĽĭçĻ½è´¨": 5843,
      "ä½Ľ": 5844,
      "çĶļèĩ³": 5845,
      "Ġskin": 5846,
      "èĴ¸": 5847,
      "æĭĽ": 5848,
      "Ġmount": 5849,
      "éŃĶ": 5850,
      "ashion": 5851,
      "Ġingred": 5852,
      "æĹĭ": 5853,
      "Ġcampaign": 5854,
      "Ġconsid": 5855,
      "Ġmuse": 5856,
      "water": 5857,
      "ä¼ļè®®": 5858,
      "Ġprotection": 5859,
      "nter": 5860,
      "ä¿ĿéĻ©": 5861,
      "Ġcrops": 5862,
      "ĠAbs": 5863,
      "ogle": 5864,
      "éļıæĹ¶": 5865,
      "æļĹ": 5866,
      "ium": 5867,
      "ä¹ı": 5868,
      "Ġdiet": 5869,
      "ĠEncoura": 5870,
      "lies": 5871,
      "çĶ¨æĿ¥": 5872,
      "æĬĹ": 5873,
      "apan": 5874,
      "éĺ²æŃ¢": 5875,
      "çļĦåŁºæľ¬": 5876,
      "å¹³æĸ¹": 5877,
      "Ġstep": 5878,
      "åı¯éĿł": 5879,
      "è¡¨æĺİ": 5880,
      "Ġpredictions": 5881,
      "Ġsympt": 5882,
      "Ġdiagnoses": 5883,
      "åħ¬åĽŃ": 5884,
      "Ġsupply": 5885,
      "Ġprevious": 5886,
      "ç»ĦåĲĪ": 5887,
      ".,": 5888,
      "çļĦè¿ĩç¨ĭ": 5889,
      "æķı": 5890,
      "çķħ": 5891,
      "ocol": 5892,
      "æĲľç´¢": 5893,
      "éĨĴ": 5894,
      "itle": 5895,
      "ĠMake": 5896,
      "ĠBi": 5897,
      "é¡¾å®¢": 5898,
      "éĢ»è¾ĳ": 5899,
      "éĿŀå¸¸éĩįè¦ģ": 5900,
      "å·¦åı³": 5901,
      "amm": 5902,
      "Ġeverything": 5903,
      "æĺł": 5904,
      "Ġincred": 5905,
      "Ġpeace": 5906,
      "èľľ": 5907,
      "su": 5908,
      "Ġmuseum": 5909,
      "çĭ¬ç«ĭ": 5910,
      "Ġcomprehensive": 5911,
      "Ġrates": 5912,
      "Ġrad": 5913,
      "åĦ¿ç«¥": 5914,
      "//": 5915,
      "ĠPredictive": 5916,
      "çī¹èī²": 5917,
      "å¼ķåĬĽ": 5918,
      "ler": 5919,
      "å°¤": 5920,
      "icro": 5921,
      "è¡¥": 5922,
      "Ġdetermine": 5923,
      "çļĦåĨħå®¹": 5924,
      "Ġcompl": 5925,
      "Ġgreenhouse": 5926,
      "èħĲ": 5927,
      "Ġhighlight": 5928,
      "Ġdoct": 5929,
      "Ġpartners": 5930,
      "ĠAf": 5931,
      "çļĦä½¿çĶ¨": 5932,
      "æŃĮæĽ²": 5933,
      "æĮĩåįĹ": 5934,
      "æľºæŀĦ": 5935,
      "éĢĢ": 5936,
      "Ġpoems": 5937,
      "å¿ĥåĴĮ": 5938,
      "Ġattend": 5939,
      "çļĦæ¸¸": 5940,
      "Ġside": 5941,
      "ales": 5942,
      "Ġmentioned": 5943,
      "How": 5944,
      "Ġhistorical": 5945,
      "Ġleft": 5946,
      "ä»¥ä¸ĭåĩłä¸ª": 5947,
      "åıĹæ¬¢è¿İ": 5948,
      "èıľåĵģ": 5949,
      "Ġremain": 5950,
      "æĩ": 5951,
      "Ġtours": 5952,
      "łéģĵ": 5953,
      "Ġerrors": 5954,
      "æľºåĪ¶": 5955,
      "æ¦": 5956,
      "æĤ£èĢħ": 5957,
      "Ġexperts": 5958,
      "çļĦçłĶç©¶": 5959,
      "ç»ĵæĿŁ": 5960,
      "Ġwritten": 5961,
      "çłĶ": 5962,
      "Ġet": 5963,
      "input": 5964,
      "æ°Ķä½ĵ": 5965,
      "èļ": 5966,
      "æĥĬ": 5967,
      "ĠCont": 5968,
      "Ġage": 5969,
      "éĩįå¤į": 5970,
      "å¼¹": 5971,
      "åŃ¤": 5972,
      "Ġsymptoms": 5973,
      "Ġ18": 5974,
      "Ġbelief": 5975,
      "'d": 5976,
      "ĠAbsolutely": 5977,
      "iol": 5978,
      "åħħè¶³": 5979,
      "çıį": 5980,
      "forcement": 5981,
      "æĸĹ": 5982,
      "Ġ15": 5983,
      "ªèĮĦ": 5984,
      "more": 5985,
      "Ch": 5986,
      "ä¸Ģä¸ªäºº": 5987,
      "Ġapplic": 5988,
      "è´¥": 5989,
      "ä½įäºİ": 5990,
      "éĻ¤äºĨ": 5991,
      "=\"": 5992,
      "ä¸īè§Ĵ": 5993,
      "Ġfru": 5994,
      "æĢĿç»´": 5995,
      "åį·": 5996,
      "ĠCollabor": 5997,
      "Ġprim": 5998,
      "Ġrequired": 5999,
      "Ġwatch": 6000,
      "è°ĥåĳ³": 6001,
      "ç»ĵè®º": 6002,
      "ony": 6003,
      "Ġguide": 6004,
      "Ġmax": 6005,
      "ĠCre": 6006,
      "ĠOverall": 6007,
      "Ġadvent": 6008,
      "çļĦæĬķ": 6009,
      "Ġexper": 6010,
      "åĺ": 6011,
      "icial": 6012,
      "oster": 6013,
      "çļĦé¢ľèī²": 6014,
      "Ġoperations": 6015,
      "Ġmoney": 6016,
      "éĥģ": 6017,
      "ley": 6018,
      "cling": 6019,
      "Ġoil": 6020,
      "çļ®èĤ¤": 6021,
      "Ġge": 6022,
      "Ġsche": 6023,
      "ĠOf": 6024,
      "Ġelectric": 6025,
      "vest": 6026,
      "Ġchain": 6027,
      "ĠAg": 6028,
      "Ġcapabilities": 6029,
      "ird": 6030,
      "è¯ģæĺİ": 6031,
      "æľĢå¥½": 6032,
      "Ġdepending": 6033,
      "ivil": 6034,
      "Ġsave": 6035,
      "Ġpractical": 6036,
      "Ġcultures": 6037,
      "çĽ¸åºĶçļĦ": 6038,
      "sy": 6039,
      "çļĦç²": 6040,
      "Ġbehind": 6041,
      "æĹ¶éĹ´åĴĮ": 6042,
      "å¹ħ": 6043,
      "Ġeffectiveness": 6044,
      "Ġanything": 6045,
      "å·§åħĭåĬĽ": 6046,
      "Ġmist": 6047,
      "Ġlanguages": 6048,
      "ĠCo": 6049,
      "å«": 6050,
      "æ£®": 6051,
      "ĠKe": 6052,
      "Ġinvestment": 6053,
      "çļĦæķħäºĭ": 6054,
      "This": 6055,
      "æ¬§": 6056,
      "Ġspeed": 6057,
      "çļĦæ¸©": 6058,
      "Ġcities": 6059,
      "åĨĻä½ľ": 6060,
      "Ġded": 6061,
      "åĪĨéħį": 6062,
      "Ġdark": 6063,
      "Ġsupporting": 6064,
      "ops": 6065,
      "å¹ķ": 6066,
      "éĽ¶": 6067,
      "Ġsharing": 6068,
      "ott": 6069,
      "mat": 6070,
      "Ġhouse": 6071,
      "è®¤çŁ¥": 6072,
      "Ġsurrounding": 6073,
      "Ġreduced": 6074,
      "ĠEducation": 6075,
      "Ġfu": 6076,
      "ĠFr": 6077,
      "Ġabs": 6078,
      "Ġstor": 6079,
      "Ġthr": 6080,
      "Ġhear": 6081,
      "ung": 6082,
      "Ġbeyond": 6083,
      "ĠMar": 6084,
      "room": 6085,
      "è¯ĹæŃĮ": 6086,
      "Ġlittle": 6087,
      "Ġgames": 6088,
      "ä¹ĭåĲİ": 6089,
      "éĥ½ä¼ļ": 6090,
      "è¯ŃéŁ³": 6091,
      "ç¬ĳ": 6092,
      "çī¹å®ļ": 6093,
      "ç¬¬ä¸Ģ": 6094,
      "Ġdepression": 6095,
      "Ġinnovation": 6096,
      "Ġcomputer": 6097,
      "reme": 6098,
      "å³°": 6099,
      "Ġ200": 6100,
      "het": 6101,
      "Ġinternational": 6102,
      "Ġcancer": 6103,
      "åŃ¦èĢħ": 6104,
      "Ġdiscover": 6105,
      "Ġcompos": 6106,
      "Ġrecy": 6107,
      "åĲ«æľī": 6108,
      "çĹĽ": 6109,
      "ç¼ĵè§£": 6110,
      "Ġfrequ": 6111,
      "çĶ³": 6112,
      "Ġunt": 6113,
      "ĠStud": 6114,
      "çļĦéĢīæĭ©": 6115,
      "Ġregions": 6116,
      "Ġopin": 6117,
      "ĠGovernments": 6118,
      "æ¶Ĥ": 6119,
      "åĨħå¿ĥ": 6120,
      "ä¸ĬæľĢ": 6121,
      "ä»įçĦ¶": 6122,
      "lier": 6123,
      "æ³³": 6124,
      "äºĴçĽ¸": 6125,
      "azon": 6126,
      "Ġarch": 6127,
      "çļĦä¸Ģä¸ª": 6128,
      "çļĦèĥ½åĬĽ": 6129,
      "Ġchem": 6130,
      "Ġred": 6131,
      "Ġap": 6132,
      "Ġwomen": 6133,
      "Ġprote": 6134,
      "Ġfinding": 6135,
      "å§»": 6136,
      "éĢĤå½ĵçļĦ": 6137,
      "Ġwait": 6138,
      "Ġforward": 6139,
      "å¯¹è±¡": 6140,
      "ĠGreat": 6141,
      "Ġconsidered": 6142,
      "dule": 6143,
      "backs": 6144,
      "Ġclinical": 6145,
      "åħ·å¤ĩ": 6146,
      "éº¦": 6147,
      "Ġongoing": 6148,
      "åĨĽ": 6149,
      "Ġfar": 6150,
      "åĴĮè°": 6151,
      "XXX": 6152,
      "Ġpolitical": 6153,
      "Ġcamer": 6154,
      "çļĦè¡Įä¸º": 6155,
      "æĦıå¤§åĪ©": 6156,
      "Ġapps": 6157,
      "åĩıè½»": 6158,
      "Ġreaders": 6159,
      "ores": 6160,
      "å©ļå§»": 6161,
      "ĠAfric": 6162,
      "æ°¸": 6163,
      "åħ¨éĿ¢": 6164,
      "Ġfavorite": 6165,
      "Ġmill": 6166,
      "Ġdang": 6167,
      "ĠStates": 6168,
      "åĢŁ": 6169,
      "å¯¿": 6170,
      "è¿ĩåİ»": 6171,
      "Ġtruly": 6172,
      "åĽŀçŃĶéĹ®é¢ĺ": 6173,
      "ĠJapan": 6174,
      "Ġcogn": 6175,
      "ä»°": 6176,
      "izz": 6177,
      "çļĦæĿĲ": 6178,
      "xx": 6179,
      "Ad": 6180,
      "ription": 6181,
      "é¢ĺçĽ®": 6182,
      "éĤ£äºĽ": 6183,
      "Ġbudget": 6184,
      "Ġvast": 6185,
      "éļĲç§ģ": 6186,
      "Ġpolicymakers": 6187,
      "è¿ĺéľĢè¦ģ": 6188,
      "Ġsweet": 6189,
      "å¹¶æıĲä¾Ľ": 6190,
      "æ»¤": 6191,
      "Ġbirds": 6192,
      "Ġplastic": 6193,
      "Ċĉ": 6194,
      "åĪº": 6195,
      "Ġinclusive": 6196,
      "Ġtopics": 6197,
      "Ġslow": 6198,
      "mental": 6199,
      "ĠAnaly": 6200,
      "è¶³å¤ŁçļĦ": 6201,
      "è§Ĩè§ī": 6202,
      "ww": 6203,
      "æī¹": 6204,
      "Ġinterpret": 6205,
      "æ¦Ĥå¿µ": 6206,
      "é£ŁçĶ¨": 6207,
      "èĢ³": 6208,
      "cks": 6209,
      "Ġfraud": 6210,
      "Ġingredients": 6211,
      "Ġä½ľä¸º": 6212,
      "Tom": 6213,
      "Ġfasc": 6214,
      "Ġfr": 6215,
      "åĮĹäº¬": 6216,
      "Ġmanufacturing": 6217,
      "Ġbeach": 6218,
      "é¡¿": 6219,
      "erious": 6220,
      "å¤ĸè§Ĥ": 6221,
      "é¢Ħéĺ²": 6222,
      "Ġdays": 6223,
      "æĿ¥èĩª": 6224,
      "èĤĮèĤī": 6225,
      "Ġgeneral": 6226,
      "ĠPo": 6227,
      "Ġassign": 6228,
      "cent": 6229,
      "Ġadvant": 6230,
      "ĠBl": 6231,
      "Ġteams": 6232,
      "é¢Ĺ": 6233,
      "nown": 6234,
      "}{": 6235,
      "Ġminut": 6236,
      "itions": 6237,
      "Ġeasily": 6238,
      "name": 6239,
      "åŃ¦æł¡": 6240,
      "Ġresponsibility": 6241,
      "åıĳæĮ¥": 6242,
      "Ġsensitive": 6243,
      "çŃīäºİ": 6244,
      "cious": 6245,
      "Ġsou": 6246,
      "å±ı": 6247,
      "Ġrich": 6248,
      "man": 6249,
      "Ġshows": 6250,
      "24": 6251,
      "Ġfall": 6252,
      "èģĮåľº": 6253,
      "è½½": 6254,
      "ä¸°å¯ĮçļĦ": 6255,
      "ĠCar": 6256,
      "å½ĵçĦ¶": 6257,
      "('": 6258,
      "ä¿®æĶ¹": 6259,
      "æĽ´æį¢": 6260,
      "åı¯èĥ½æĺ¯": 6261,
      "Ġ50": 6262,
      "Ġrate": 6263,
      "Ġprotecting": 6264,
      "fit": 6265,
      "Ġmovement": 6266,
      "è§Ī": 6267,
      "Ġemployee": 6268,
      "Ġdisord": 6269,
      "åĪĽæĦı": 6270,
      "äº§åĵģçļĦ": 6271,
      "ĊĠĠĠĠĠĠĠĠĠĠĠĠĠĠĠ": 6272,
      "Ġpred": 6273,
      "Ġoffering": 6274,
      "æľĿ": 6275,
      "åįģåĪĨ": 6276,
      "èĢĮä¸įæĺ¯": 6277,
      "æĽ¾": 6278,
      "Ġelements": 6279,
      "ç²Ĵ": 6280,
      "Ġcourses": 6281,
      "Ġintegrated": 6282,
      "agraph": 6283,
      "åŁºåĽł": 6284,
      "Ġinstead": 6285,
      "èĦ±": 6286,
      "åı¦ä¸Ģä¸ª": 6287,
      "å¯Ĩçłģ": 6288,
      "Ġallowed": 6289,
      "éĿ¢åĮħ": 6290,
      "çķªèĮĦ": 6291,
      "åĴĮåıĳå±ķ": 6292,
      "å°ģ": 6293,
      "Ġconnection": 6294,
      "Ġuseful": 6295,
      "è¯Ńåı¥": 6296,
      "åĪĨå¸ĥ": 6297,
      "è¡¨æ¼Ķ": 6298,
      "æľīæĹ¶": 6299,
      "aught": 6300,
      "çļĦæĹħ": 6301,
      "çļĦæĢ»": 6302,
      "Ġfashion": 6303,
      "èĭ¦": 6304,
      "ilt": 6305,
      "è¦ģæ³¨æĦı": 6306,
      "çĶŁç´ł": 6307,
      "Ġnutri": 6308,
      "èĩªè¡Į": 6309,
      "çļĦçĭ": 6310,
      "çĲĨè§£åĴĮ": 6311,
      "æľºåĻ¨åŃ¦ä¹ł": 6312,
      "Ġcat": 6313,
      "Ġexhib": 6314,
      "åĴĮæľįåĬ¡": 6315,
      "frac": 6316,
      "epend": 6317,
      "Ġimpacted": 6318,
      "ĠWorld": 6319,
      "Ġut": 6320,
      "Ġanswer": 6321,
      "erse": 6322,
      "æķ°ç»Ħ": 6323,
      "éª¨": 6324,
      "lt": 6325,
      "Ġartists": 6326,
      "åŃ©åŃĲçļĦ": 6327,
      "can": 6328,
      "Ġå¯¹": 6329,
      "ä»Ķ": 6330,
      "Ġcool": 6331,
      "çĻ»": 6332,
      "Ġcognitive": 6333,
      "åĲĦä¸ª": 6334,
      "å©´åĦ¿": 6335,
      "like": 6336,
      "Ġlat": 6337,
      "åĪĹåĩº": 6338,
      "å¹»": 6339,
      "ront": 6340,
      "ĠVis": 6341,
      "å®¶éķ¿": 6342,
      "ç¼ºä¹ı": 6343,
      "Ġcyber": 6344,
      "Ġcapture": 6345,
      "åĹ": 6346,
      "åľ¨äºİ": 6347,
      "ĠDon": 6348,
      "Ġthreats": 6349,
      "åĴĮç¤¾ä¼ļ": 6350,
      "Ġcells": 6351,
      "æ¸ħåįķ": 6352,
      "ĠApp": 6353,
      "Ġhol": 6354,
      "æİī": 6355,
      "åŃĲçļĦ": 6356,
      "èĿ": 6357,
      "Ġsaid": 6358,
      "Ġdream": 6359,
      "unch": 6360,
      "une": 6361,
      "å®¶äºº": 6362,
      "ç±į": 6363,
      "æĦŁåĴĮ": 6364,
      "Ġexperienced": 6365,
      "ĠæıĲä¾Ľ": 6366,
      "çļĦéĩįè¦ģæĢ§": 6367,
      "å¼ĥ": 6368,
      "ump": 6369,
      "éĺĲ": 6370,
      "Ġhabitat": 6371,
      "Ġjo": 6372,
      "è¢ĭ": 6373,
      "ç®Ģæ´ģ": 6374,
      "Ġbur": 6375,
      "Ġvisitors": 6376,
      "éĽħ": 6377,
      "çļĦçŁ¥": 6378,
      "Ġentire": 6379,
      "ĠBus": 6380,
      "è®²è¿°": 6381,
      "äºĨä¸ĢäºĽ": 6382,
      "åįıä½ľ": 6383,
      "å°¾": 6384,
      "çļĦæķĻ": 6385,
      "çļĦéŁ³ä¹Ĳ": 6386,
      "olog": 6387,
      "Ġsigns": 6388,
      "Ġspeaker": 6389,
      "Ġnovel": 6390,
      "å±ħæ°ĳ": 6391,
      "çļĦåıĺåĮĸ": 6392,
      "å°½éĩı": 6393,
      "Ġspirit": 6394,
      "å®Įç¾İ": 6395,
      "è´·": 6396,
      "å¿ħè¦ģçļĦ": 6397,
      "ief": 6398,
      "ç¤ºä¾ĭ": 6399
    },
    "merges": [
      [
        "Ġ",
        "t"
      ],
      [
        "Ġ",
        "a"
      ],
      [
        "i",
        "n"
      ],
      [
        "h",
        "e"
      ],
      [
        "r",
        "e"
      ],
      [
        "ï",
        "¼"
      ],
      [
        "ä",
        "¸"
      ],
      [
        "o",
        "n"
      ],
      [
        "a",
        "t"
      ],
      [
        "ç",
        "ļ"
      ],
      [
        "çļ",
        "Ħ"
      ],
      [
        "ï¼",
        "Į"
      ],
      [
        "Ġ",
        "s"
      ],
      [
        "Ġ",
        "c"
      ],
      [
        "n",
        "d"
      ],
      [
        "ã",
        "Ģ"
      ],
      [
        "e",
        "r"
      ],
      [
        "Ġt",
        "he"
      ],
      [
        "e",
        "s"
      ],
      [
        "e",
        "n"
      ],
      [
        "o",
        "r"
      ],
      [
        "a",
        "n"
      ],
      [
        "Ġa",
        "nd"
      ],
      [
        "Ġ",
        "p"
      ],
      [
        "in",
        "g"
      ],
      [
        "i",
        "t"
      ],
      [
        "a",
        "l"
      ],
      [
        "ãĢ",
        "Ĥ"
      ],
      [
        "Ġ",
        "o"
      ],
      [
        "Ġ",
        "w"
      ],
      [
        "ä",
        "»"
      ],
      [
        "Ġt",
        "o"
      ],
      [
        "i",
        "s"
      ],
      [
        "o",
        "u"
      ],
      [
        "Ġ",
        "m"
      ],
      [
        "ä",
        "º"
      ],
      [
        "Ġ",
        "in"
      ],
      [
        "Ġ",
        "f"
      ],
      [
        "Ġ",
        "b"
      ],
      [
        "e",
        "d"
      ],
      [
        "i",
        "on"
      ],
      [
        "å",
        "ı"
      ],
      [
        "i",
        "c"
      ],
      [
        "Ġ",
        "d"
      ],
      [
        "Ġo",
        "f"
      ],
      [
        "l",
        "e"
      ],
      [
        "a",
        "r"
      ],
      [
        "r",
        "o"
      ],
      [
        "Ġ",
        "Ġ"
      ],
      [
        "å",
        "ħ"
      ],
      [
        "en",
        "t"
      ],
      [
        "æ",
        "ľ"
      ],
      [
        "Ġ",
        "e"
      ],
      [
        "å",
        "Ĵ"
      ],
      [
        "è",
        "¿"
      ],
      [
        "ä",
        "½"
      ],
      [
        "åĴ",
        "Į"
      ],
      [
        "æ",
        "Ī"
      ],
      [
        "å",
        "®"
      ],
      [
        "å",
        "Ī"
      ],
      [
        "v",
        "e"
      ],
      [
        "u",
        "s"
      ],
      [
        "Ġ",
        "re"
      ],
      [
        "Ġ",
        "h"
      ],
      [
        "Ġt",
        "h"
      ],
      [
        "a",
        "s"
      ],
      [
        "c",
        "t"
      ],
      [
        "ç",
        "Ķ"
      ],
      [
        "o",
        "m"
      ],
      [
        "å",
        "ľ"
      ],
      [
        "å",
        "¤"
      ],
      [
        "æ",
        "ĺ"
      ],
      [
        "å",
        "Ĭ"
      ],
      [
        "å",
        "Ĳ"
      ],
      [
        "ä¸",
        "Ģ"
      ],
      [
        "i",
        "m"
      ],
      [
        "è",
        "¯"
      ],
      [
        "æ",
        "ĸ"
      ],
      [
        "at",
        "ion"
      ],
      [
        "l",
        "o"
      ],
      [
        "ç",
        "»"
      ],
      [
        "Ġb",
        "e"
      ],
      [
        "ãĢ",
        "ģ"
      ],
      [
        "i",
        "d"
      ],
      [
        "Ġc",
        "an"
      ],
      [
        "i",
        "l"
      ],
      [
        "æĺ",
        "¯"
      ],
      [
        "ä",
        "¹"
      ],
      [
        "è",
        "®"
      ],
      [
        "Ġ",
        "A"
      ],
      [
        "Ġ",
        "T"
      ],
      [
        "Ġth",
        "at"
      ],
      [
        "ä»",
        "¥"
      ],
      [
        "c",
        "h"
      ],
      [
        "Ġ",
        "y"
      ],
      [
        "c",
        "e"
      ],
      [
        "ï¼",
        "ļ"
      ],
      [
        "o",
        "t"
      ],
      [
        "er",
        "s"
      ],
      [
        "Ġ",
        "n"
      ],
      [
        "é",
        "Ģ"
      ],
      [
        "r",
        "a"
      ],
      [
        "å",
        "°"
      ],
      [
        "Ġ",
        "g"
      ],
      [
        "Ġy",
        "ou"
      ],
      [
        "å",
        "Ń"
      ],
      [
        "Ġp",
        "ro"
      ],
      [
        "e",
        "t"
      ],
      [
        "å",
        "º"
      ],
      [
        "åľ",
        "¨"
      ],
      [
        "l",
        "y"
      ],
      [
        "Ġ",
        "is"
      ],
      [
        "ä¸",
        "ª"
      ],
      [
        "Ġ",
        "l"
      ],
      [
        "u",
        "r"
      ],
      [
        "Ġf",
        "or"
      ],
      [
        "åı",
        "¯"
      ],
      [
        "é",
        "ĩ"
      ],
      [
        "s",
        "t"
      ],
      [
        "çļĦ",
        "æ"
      ],
      [
        "Ġ",
        "I"
      ],
      [
        "u",
        "t"
      ],
      [
        "Ġ",
        "he"
      ],
      [
        "i",
        "f"
      ],
      [
        "ĥ",
        "½"
      ],
      [
        "ä",
        "¼"
      ],
      [
        "è",
        "¡"
      ],
      [
        "i",
        "r"
      ],
      [
        "it",
        "h"
      ],
      [
        "å",
        "¹"
      ],
      [
        "Ġa",
        "re"
      ],
      [
        "i",
        "g"
      ],
      [
        "Ġs",
        "t"
      ],
      [
        "e",
        "l"
      ],
      [
        "o",
        "l"
      ],
      [
        "å",
        "¸"
      ],
      [
        "u",
        "l"
      ],
      [
        "æ",
        "Ŀ"
      ],
      [
        "æĪ",
        "ĳ"
      ],
      [
        "Ġ",
        "on"
      ],
      [
        "è",
        "¦"
      ],
      [
        "æľ",
        "ī"
      ],
      [
        "æ",
        "Ĺ"
      ],
      [
        "å",
        "¯"
      ],
      [
        "è",
        "§"
      ],
      [
        "è¦",
        "ģ"
      ],
      [
        "Ġ",
        "us"
      ],
      [
        "a",
        "y"
      ],
      [
        "æ",
        "ķ"
      ],
      [
        "ç",
        "ī"
      ],
      [
        "o",
        "w"
      ],
      [
        "m",
        "ent"
      ],
      [
        "çĶ",
        "¨"
      ],
      [
        "es",
        "s"
      ],
      [
        "ä¸",
        "Ń"
      ],
      [
        "ä»",
        "¬"
      ],
      [
        "äº",
        "º"
      ],
      [
        "Ġe",
        "x"
      ],
      [
        "å",
        "ĩ"
      ],
      [
        "ĠĠ",
        "ĠĠ"
      ],
      [
        "å",
        "Ľ"
      ],
      [
        "å",
        "Į"
      ],
      [
        "å",
        "¼"
      ],
      [
        "Ġc",
        "on"
      ],
      [
        "s",
        "e"
      ],
      [
        "è",
        "ĥ½"
      ],
      [
        "ç",
        "İ"
      ],
      [
        "Ġa",
        "n"
      ],
      [
        "Ġw",
        "ith"
      ],
      [
        "ä¸",
        "º"
      ],
      [
        "at",
        "e"
      ],
      [
        "i",
        "v"
      ],
      [
        "a",
        "m"
      ],
      [
        "Ġa",
        "s"
      ],
      [
        "u",
        "re"
      ],
      [
        "è¿",
        "Ļ"
      ],
      [
        "å",
        "Ĩ"
      ],
      [
        "ç",
        "Ń"
      ],
      [
        "Ġ",
        "or"
      ],
      [
        "å",
        "·"
      ],
      [
        "Ġa",
        "l"
      ],
      [
        "i",
        "es"
      ],
      [
        "ç",
        "§"
      ],
      [
        "Ġ",
        "im"
      ],
      [
        "æ",
        "Ģ"
      ],
      [
        "v",
        "er"
      ],
      [
        "a",
        "b"
      ],
      [
        "äº",
        "Ĩ"
      ],
      [
        "Ġs",
        "u"
      ],
      [
        "Ġd",
        "e"
      ],
      [
        "g",
        "e"
      ],
      [
        "t",
        "h"
      ],
      [
        "åı¯",
        "ä»¥"
      ],
      [
        "è",
        "Ģ"
      ],
      [
        "ä¸",
        "į"
      ],
      [
        "Ġ",
        "C"
      ],
      [
        "å",
        "¾"
      ],
      [
        "ĠA",
        "I"
      ],
      [
        "Ġ",
        "en"
      ],
      [
        "é",
        "Ĺ"
      ],
      [
        "æ",
        "ī"
      ],
      [
        "a",
        "k"
      ],
      [
        "i",
        "ve"
      ],
      [
        "Ġm",
        "o"
      ],
      [
        "å",
        "¥"
      ],
      [
        "é",
        "Ŀ"
      ],
      [
        "ç",
        "Ľ"
      ],
      [
        "it",
        "y"
      ],
      [
        "ä",
        "¿"
      ],
      [
        "u",
        "n"
      ],
      [
        "è",
        "´"
      ],
      [
        "å",
        "į"
      ],
      [
        "Ġ",
        "it"
      ],
      [
        "Ġim",
        "p"
      ],
      [
        "e",
        "ct"
      ],
      [
        "æ",
        "ł"
      ],
      [
        "å",
        "½"
      ],
      [
        "è",
        "ĩ"
      ],
      [
        "é",
        "¢"
      ],
      [
        "å",
        "ĵ"
      ],
      [
        "æ",
        "³"
      ],
      [
        "or",
        "t"
      ],
      [
        "a",
        "d"
      ],
      [
        "æ",
        "ŀ"
      ],
      [
        "e",
        "m"
      ],
      [
        "Ġ",
        "S"
      ],
      [
        "Ġc",
        "om"
      ],
      [
        "å",
        "¦"
      ],
      [
        "ĠT",
        "he"
      ],
      [
        "he",
        "r"
      ],
      [
        "e",
        "re"
      ],
      [
        "i",
        "al"
      ],
      [
        "ç",
        "Ĳ"
      ],
      [
        "çĶ",
        "Ł"
      ],
      [
        "æ",
        "Ħ"
      ],
      [
        "p",
        "p"
      ],
      [
        "æ",
        "Ń"
      ],
      [
        "æĸ",
        "¹"
      ],
      [
        "q",
        "u"
      ],
      [
        "Ġw",
        "h"
      ],
      [
        "å¦",
        "Ĥ"
      ],
      [
        "é",
        "ľ"
      ],
      [
        "an",
        "t"
      ],
      [
        "Ġ",
        "le"
      ],
      [
        "Ġ",
        "v"
      ],
      [
        "æ",
        "ĭ"
      ],
      [
        "æ",
        "Ĭ"
      ],
      [
        "us",
        "t"
      ],
      [
        "æĹ",
        "¶"
      ],
      [
        "çŃ",
        "ī"
      ],
      [
        "å",
        "ĳ"
      ],
      [
        "å¯",
        "¹"
      ],
      [
        "t",
        "er"
      ],
      [
        "l",
        "d"
      ],
      [
        "è¡",
        "Į"
      ],
      [
        "Ġc",
        "h"
      ],
      [
        "u",
        "d"
      ],
      [
        "éľ",
        "Ģ"
      ],
      [
        "æ",
        "°"
      ],
      [
        "Ġ",
        "|"
      ],
      [
        "æĪ",
        "Ĳ"
      ],
      [
        "a",
        "c"
      ],
      [
        "a",
        "in"
      ],
      [
        "i",
        "z"
      ],
      [
        "Ġ",
        "H"
      ],
      [
        "æ",
        "ı"
      ],
      [
        "ion",
        "s"
      ],
      [
        "Ġh",
        "a"
      ],
      [
        "æ",
        "Ľ"
      ],
      [
        "-",
        "-"
      ],
      [
        "æĿ",
        "¥"
      ],
      [
        "om",
        "e"
      ],
      [
        "å",
        "¿"
      ],
      [
        "'",
        "s"
      ],
      [
        "Ġn",
        "e"
      ],
      [
        "es",
        "t"
      ],
      [
        "ä",
        "¾"
      ],
      [
        "u",
        "m"
      ],
      [
        "åĪ",
        "°"
      ],
      [
        "åľ",
        "°"
      ],
      [
        "is",
        "t"
      ],
      [
        "â",
        "Ģ"
      ],
      [
        "çī",
        "©"
      ],
      [
        "ä¸Ģ",
        "ä¸ª"
      ],
      [
        "l",
        "p"
      ],
      [
        "æ",
        "İ"
      ],
      [
        "èĩ",
        "ª"
      ],
      [
        "Ġhe",
        "lp"
      ],
      [
        "Ġthe",
        "ir"
      ],
      [
        "æ",
        "Ķ"
      ],
      [
        "ĠT",
        "h"
      ],
      [
        "ä½",
        "ľ"
      ],
      [
        "ä¼",
        "ļ"
      ],
      [
        "æ",
        "Į"
      ],
      [
        "æĪĳ",
        "ä»¬"
      ],
      [
        "n",
        "t"
      ],
      [
        "äº",
        "İ"
      ],
      [
        "åĪ",
        "Ĩ"
      ],
      [
        "re",
        "s"
      ],
      [
        "p",
        "e"
      ],
      [
        "åĩ",
        "º"
      ],
      [
        "id",
        "e"
      ],
      [
        "æ",
        "ĥ"
      ],
      [
        "Ġ",
        "M"
      ],
      [
        "è",
        "¾"
      ],
      [
        "f",
        "f"
      ],
      [
        "æ",
        "¯"
      ],
      [
        "o",
        "d"
      ],
      [
        "ic",
        "al"
      ],
      [
        "Ġw",
        "or"
      ],
      [
        "ä¸",
        "Ĭ"
      ],
      [
        "a",
        "re"
      ],
      [
        "æĽ",
        "´"
      ],
      [
        "Ġyou",
        "r"
      ],
      [
        "ä¸",
        "ĭ"
      ],
      [
        "è",
        "µ"
      ],
      [
        "ation",
        "s"
      ],
      [
        "æķ",
        "°"
      ],
      [
        "Ġt",
        "e"
      ],
      [
        "å",
        "İ"
      ],
      [
        "çĲ",
        "Ĩ"
      ],
      [
        "è¿",
        "ĩ"
      ],
      [
        "å¹",
        "¶"
      ],
      [
        "d",
        "u"
      ],
      [
        "Ġa",
        "d"
      ],
      [
        "éĿ",
        "¢"
      ],
      [
        "il",
        "l"
      ],
      [
        "æ",
        "µ"
      ],
      [
        "å¥",
        "½"
      ],
      [
        "o",
        "c"
      ],
      [
        "a",
        "ct"
      ],
      [
        "éľĢ",
        "è¦ģ"
      ],
      [
        "ä»",
        "ĸ"
      ],
      [
        "å",
        "±"
      ],
      [
        "Ġ",
        "r"
      ],
      [
        "Ġmo",
        "re"
      ],
      [
        "åŃ",
        "¦"
      ],
      [
        "ç",
        "®"
      ],
      [
        "ig",
        "h"
      ],
      [
        "äº",
        "Ľ"
      ],
      [
        "Ġ",
        "B"
      ],
      [
        "åĬ",
        "¨"
      ],
      [
        "åĵ",
        "ģ"
      ],
      [
        "è",
        "ī"
      ],
      [
        "Ġin",
        "c"
      ],
      [
        "p",
        "le"
      ],
      [
        "åĲ",
        "Į"
      ],
      [
        "Ġex",
        "p"
      ],
      [
        "ou",
        "ld"
      ],
      [
        "ä½",
        "ł"
      ],
      [
        "Ġ",
        "P"
      ],
      [
        "æ",
        "į"
      ],
      [
        "æı",
        "Ĳ"
      ],
      [
        "å¤",
        "§"
      ],
      [
        "çİ",
        "°"
      ],
      [
        "p",
        "t"
      ],
      [
        "al",
        "l"
      ],
      [
        "åĬ",
        "ł"
      ],
      [
        "ç§",
        "į"
      ],
      [
        "Ġs",
        "e"
      ],
      [
        "åĬ",
        "Ľ"
      ],
      [
        "ou",
        "t"
      ],
      [
        "Ġha",
        "ve"
      ],
      [
        "ç",
        "º"
      ],
      [
        "ä½",
        "ĵ"
      ],
      [
        "ĠTh",
        "is"
      ],
      [
        "Ġpro",
        "v"
      ],
      [
        "åĮ",
        "ĸ"
      ],
      [
        "å¤",
        "ļ"
      ],
      [
        "å®",
        "ļ"
      ],
      [
        "Ġus",
        "ed"
      ],
      [
        "éĢ",
        "ļ"
      ],
      [
        "c",
        "c"
      ],
      [
        "è¿",
        "Ľ"
      ],
      [
        "æ",
        "´"
      ],
      [
        "Ġs",
        "h"
      ],
      [
        "Ġa",
        "b"
      ],
      [
        "o",
        "s"
      ],
      [
        "Ġre",
        "s"
      ],
      [
        "Ġ",
        "W"
      ],
      [
        "ç",
        "¨"
      ],
      [
        "æĢ",
        "§"
      ],
      [
        "a",
        "ge"
      ],
      [
        "r",
        "i"
      ],
      [
        "æ",
        "¸"
      ],
      [
        "ab",
        "le"
      ],
      [
        "åŃ",
        "Ĳ"
      ],
      [
        "Ġb",
        "y"
      ],
      [
        "åı",
        "ĳ"
      ],
      [
        "éĩ",
        "ı"
      ],
      [
        "åº",
        "Ķ"
      ],
      [
        "Ġ",
        "lo"
      ],
      [
        "ä½",
        "¿"
      ],
      [
        "åħ",
        "¶"
      ],
      [
        "é",
        "«"
      ],
      [
        "é",
        "Ļ"
      ],
      [
        "é«",
        "ĺ"
      ],
      [
        "åº",
        "¦"
      ],
      [
        "è§",
        "£"
      ],
      [
        "é",
        "£"
      ],
      [
        "å°",
        "Ĩ"
      ],
      [
        "æ³",
        "ķ"
      ],
      [
        "a",
        "nd"
      ],
      [
        "ä¿",
        "Ŀ"
      ],
      [
        "an",
        "s"
      ],
      [
        "f",
        "or"
      ],
      [
        "ro",
        "m"
      ],
      [
        "re",
        "at"
      ],
      [
        "Ġp",
        "l"
      ],
      [
        "çļĦ",
        "ç"
      ],
      [
        "å¸",
        "¸"
      ],
      [
        "è",
        "½"
      ],
      [
        "Ġw",
        "e"
      ],
      [
        "è¡",
        "¨"
      ],
      [
        "ak",
        "e"
      ],
      [
        "æĪ",
        "ĸ"
      ],
      [
        "é¢",
        "ĺ"
      ],
      [
        "å",
        "Ł"
      ],
      [
        "Ġm",
        "e"
      ],
      [
        "æĸ",
        "ĩ"
      ],
      [
        "t",
        "her"
      ],
      [
        "k",
        "e"
      ],
      [
        "å®",
        "¶"
      ],
      [
        "åĲ",
        "Ī"
      ],
      [
        "æľ",
        "Ģ"
      ],
      [
        "Ġ",
        "E"
      ],
      [
        "in",
        "e"
      ],
      [
        "Ġs",
        "ome"
      ],
      [
        "ç",
        "±"
      ],
      [
        "éĩ",
        "į"
      ],
      [
        "æŀ",
        "ľ"
      ],
      [
        "é",
        "ĺ"
      ],
      [
        "ou",
        "r"
      ],
      [
        "r",
        "ou"
      ],
      [
        "Ġ",
        "D"
      ],
      [
        "ç",
        "Ĥ"
      ],
      [
        "æ",
        "±"
      ],
      [
        "åħ",
        "³"
      ],
      [
        "Ġin",
        "t"
      ],
      [
        "an",
        "ce"
      ],
      [
        "ä¹",
        "Ł"
      ],
      [
        "é",
        "ģ"
      ],
      [
        "ĠĠ",
        "Ġ"
      ],
      [
        "å®",
        "ĥ"
      ],
      [
        "a",
        "g"
      ],
      [
        "æ",
        "¬"
      ],
      [
        "0",
        "0"
      ],
      [
        "è",
        "°"
      ],
      [
        "ul",
        "t"
      ],
      [
        "y",
        "st"
      ],
      [
        "éĹ",
        "´"
      ],
      [
        "Ġ",
        "F"
      ],
      [
        "Ġt",
        "r"
      ],
      [
        "ç",
        "³"
      ],
      [
        "p",
        "l"
      ],
      [
        "ar",
        "t"
      ],
      [
        "æĦ",
        "Ł"
      ],
      [
        "æ",
        "Ĥ"
      ],
      [
        "at",
        "a"
      ],
      [
        "for",
        "m"
      ],
      [
        "è®",
        "¡"
      ],
      [
        "Ġf",
        "rom"
      ],
      [
        "éĹ",
        "®"
      ],
      [
        "igh",
        "t"
      ],
      [
        "c",
        "es"
      ],
      [
        "æį",
        "®"
      ],
      [
        "lo",
        "p"
      ],
      [
        "Ġ",
        "R"
      ],
      [
        "ä¹",
        "ĭ"
      ],
      [
        "Ġ",
        "1"
      ],
      [
        "Ġf",
        "e"
      ],
      [
        "å",
        "ģ"
      ],
      [
        "ve",
        "lop"
      ],
      [
        "åĽ",
        "ł"
      ],
      [
        "k",
        "s"
      ],
      [
        "æ",
        "²"
      ],
      [
        "Ġ",
        "u"
      ],
      [
        "å°",
        "ı"
      ],
      [
        "yst",
        "em"
      ],
      [
        "Ġd",
        "is"
      ],
      [
        "g",
        "y"
      ],
      [
        "å·",
        "¥"
      ],
      [
        "ç¨",
        "ĭ"
      ],
      [
        "å",
        "¢"
      ],
      [
        "en",
        "ce"
      ],
      [
        "è",
        "Ĥ"
      ],
      [
        "ç",
        "¡"
      ],
      [
        "Ġt",
        "ra"
      ],
      [
        "å",
        "»"
      ],
      [
        "åħ",
        "¥"
      ],
      [
        "ig",
        "n"
      ],
      [
        "al",
        "th"
      ],
      [
        "Ġsu",
        "ch"
      ],
      [
        "a",
        "ch"
      ],
      [
        "æ",
        "Ļ"
      ],
      [
        "ar",
        "n"
      ],
      [
        "Ġd",
        "ata"
      ],
      [
        "è",
        "¶"
      ],
      [
        "å®",
        "ŀ"
      ],
      [
        "s",
        "o"
      ],
      [
        "Ġde",
        "velop"
      ],
      [
        "ç",
        "¤"
      ],
      [
        "Ġa",
        "cc"
      ],
      [
        "as",
        "t"
      ],
      [
        "èĢ",
        "Į"
      ],
      [
        "Ġ",
        "\""
      ],
      [
        "Ġo",
        "ther"
      ],
      [
        "å»",
        "º"
      ],
      [
        "Ġe",
        "ff"
      ],
      [
        "ç",
        "«"
      ],
      [
        "Ġm",
        "an"
      ],
      [
        "åħ",
        "¬"
      ],
      [
        "å",
        "Ģ"
      ],
      [
        "ç",
        "Ħ"
      ],
      [
        "m",
        "s"
      ],
      [
        "å¼",
        "ı"
      ],
      [
        "èī",
        "²"
      ],
      [
        "å¾",
        "Ĺ"
      ],
      [
        "if",
        "ic"
      ],
      [
        "Ġ",
        "j"
      ],
      [
        "Ġ",
        "ro"
      ],
      [
        "Ġh",
        "as"
      ],
      [
        "ch",
        "n"
      ],
      [
        "o",
        "lo"
      ],
      [
        "åĪ",
        "¶"
      ],
      [
        "è",
        "Ĭ"
      ],
      [
        "ä½¿",
        "çĶ¨"
      ],
      [
        "ou",
        "s"
      ],
      [
        "u",
        "al"
      ],
      [
        "Ġa",
        "t"
      ],
      [
        "Ġe",
        "m"
      ],
      [
        "el",
        "l"
      ],
      [
        "Ġs",
        "ystem"
      ],
      [
        "Ġhe",
        "alth"
      ],
      [
        "it",
        "ies"
      ],
      [
        "Ġex",
        "am"
      ],
      [
        "i",
        "b"
      ],
      [
        "é",
        "Ķ"
      ],
      [
        "Ġab",
        "out"
      ],
      [
        "äº",
        "§"
      ],
      [
        "åĲ",
        "İ"
      ],
      [
        "æĦ",
        "ı"
      ],
      [
        "ç±",
        "»"
      ],
      [
        "Ġp",
        "re"
      ],
      [
        "æĤ",
        "¨"
      ],
      [
        "Ġal",
        "so"
      ],
      [
        "ent",
        "s"
      ],
      [
        "Ġin",
        "d"
      ],
      [
        "in",
        "d"
      ],
      [
        "éĢ",
        "Ĥ"
      ],
      [
        "Ġte",
        "chn"
      ],
      [
        "res",
        "s"
      ],
      [
        "æĥ",
        "ħ"
      ],
      [
        "éĹ®",
        "é¢ĺ"
      ],
      [
        "Ġus",
        "e"
      ],
      [
        "ï¼",
        "Ł"
      ],
      [
        "Ġinc",
        "l"
      ],
      [
        "Ġs",
        "pe"
      ],
      [
        "ic",
        "h"
      ],
      [
        "p",
        "s"
      ],
      [
        "æľ",
        "º"
      ],
      [
        "Ġthe",
        "y"
      ],
      [
        "i",
        "e"
      ],
      [
        "Ġh",
        "ow"
      ],
      [
        "Ġwor",
        "k"
      ],
      [
        "ä¸",
        "ļ"
      ],
      [
        "ç",
        "´"
      ],
      [
        "Ġimp",
        "ro"
      ],
      [
        "Ġle",
        "arn"
      ],
      [
        "æĸ",
        "°"
      ],
      [
        "çĤ",
        "¹"
      ],
      [
        "Ġcon",
        "t"
      ],
      [
        "ar",
        "d"
      ],
      [
        "çĦ",
        "¶"
      ],
      [
        "æľ",
        "¬"
      ],
      [
        "ç³",
        "»"
      ],
      [
        "ç¡",
        "®"
      ],
      [
        "è®",
        "¾"
      ],
      [
        "åħ",
        "·"
      ],
      [
        "éĢ",
        "ī"
      ],
      [
        "èĢ",
        "ħ"
      ],
      [
        "é",
        "ħ"
      ],
      [
        "g",
        "h"
      ],
      [
        "_",
        "_"
      ],
      [
        "Ġn",
        "ot"
      ],
      [
        "ç",
        "ľ"
      ],
      [
        "çĽ",
        "¸"
      ],
      [
        "Ġprov",
        "ide"
      ],
      [
        "å",
        "ī"
      ],
      [
        "ion",
        "al"
      ],
      [
        "Ġen",
        "s"
      ],
      [
        "ä¸",
        "İ"
      ],
      [
        "è´",
        "¨"
      ],
      [
        "ent",
        "ial"
      ],
      [
        "ç»",
        "ı"
      ],
      [
        "å¿",
        "ĥ"
      ],
      [
        "an",
        "g"
      ],
      [
        "æŃ",
        "¤"
      ],
      [
        "Ġ",
        "G"
      ],
      [
        "e",
        "nd"
      ],
      [
        "Ġp",
        "o"
      ],
      [
        "è¿Ľ",
        "è¡Į"
      ],
      [
        "Ġ",
        "2"
      ],
      [
        "Ġ",
        "-"
      ],
      [
        "ic",
        "e"
      ],
      [
        "Ġw",
        "ay"
      ],
      [
        "å·",
        "±"
      ],
      [
        "im",
        "e"
      ],
      [
        "ç",
        "½"
      ],
      [
        "èĩª",
        "å·±"
      ],
      [
        "Ġ",
        "un"
      ],
      [
        "b",
        "ot"
      ],
      [
        "Ġincl",
        "ud"
      ],
      [
        "at",
        "ed"
      ],
      [
        "æ°",
        "´"
      ],
      [
        "é",
        "ķ"
      ],
      [
        "Ġ",
        "L"
      ],
      [
        "æĮ",
        "ģ"
      ],
      [
        "ä»",
        "£"
      ],
      [
        "é",
        "¡"
      ],
      [
        "æī",
        "Ģ"
      ],
      [
        "ç",
        "Ŀ"
      ],
      [
        "pp",
        "ort"
      ],
      [
        "o",
        "od"
      ],
      [
        "i",
        "ke"
      ],
      [
        "r",
        "u"
      ],
      [
        "Ġcom",
        "m"
      ],
      [
        "ä¿",
        "¡"
      ],
      [
        "ç",
        "Ł"
      ],
      [
        "çĶ",
        "µ"
      ],
      [
        "Ġw",
        "as"
      ],
      [
        "lo",
        "w"
      ],
      [
        "er",
        "v"
      ],
      [
        "åĮ",
        "ħ"
      ],
      [
        "ĠĠĠĠ",
        "ĠĠĠĠ"
      ],
      [
        "Ġw",
        "he"
      ],
      [
        "d",
        "it"
      ],
      [
        "Ġwh",
        "ich"
      ],
      [
        "Ġcom",
        "p"
      ],
      [
        "é",
        "ª"
      ],
      [
        "o",
        "re"
      ],
      [
        "ç",
        "¾"
      ],
      [
        "Ġ",
        "="
      ],
      [
        "çī",
        "¹"
      ],
      [
        "if",
        "f"
      ],
      [
        "er",
        "t"
      ],
      [
        "æ",
        "ģ"
      ],
      [
        "r",
        "it"
      ],
      [
        "Ġre",
        "c"
      ],
      [
        "åĨ",
        "ħ"
      ],
      [
        "æĺ",
        "İ"
      ],
      [
        "or",
        "s"
      ],
      [
        "Ġp",
        "at"
      ],
      [
        "--",
        "--"
      ],
      [
        "æ",
        "Ł"
      ],
      [
        "Ġa",
        "pp"
      ],
      [
        "n",
        "s"
      ],
      [
        "åĬ",
        "¡"
      ],
      [
        "al",
        "y"
      ],
      [
        "a",
        "ce"
      ],
      [
        "æ´",
        "»"
      ],
      [
        "ä¾",
        "Ľ"
      ],
      [
        "a",
        "v"
      ],
      [
        "ä¸",
        "»"
      ],
      [
        "Ġ",
        "N"
      ],
      [
        "Ġp",
        "ers"
      ],
      [
        "ç",
        "ĥ"
      ],
      [
        "è¯",
        "¥"
      ],
      [
        "Ġm",
        "y"
      ],
      [
        "ç",
        "©"
      ],
      [
        "er",
        "i"
      ],
      [
        "è®",
        "©"
      ],
      [
        "æĬ",
        "Ģ"
      ],
      [
        "éķ",
        "¿"
      ],
      [
        "ac",
        "k"
      ],
      [
        "Ġd",
        "iff"
      ],
      [
        "Ġth",
        "is"
      ],
      [
        "å",
        "Ŀ"
      ],
      [
        "Ġens",
        "ure"
      ],
      [
        "å½",
        "ĵ"
      ],
      [
        "Ġo",
        "ut"
      ],
      [
        "Ġc",
        "l"
      ],
      [
        "Ġ",
        "k"
      ],
      [
        "ĠI",
        "t"
      ],
      [
        "é",
        "¦"
      ],
      [
        "ou",
        "nt"
      ],
      [
        "çİ",
        "¯"
      ],
      [
        "åĬ",
        "©"
      ],
      [
        "Ġtechn",
        "olo"
      ],
      [
        "Ġthe",
        "se"
      ],
      [
        "f",
        "ul"
      ],
      [
        "Ġ",
        "Y"
      ],
      [
        "é",
        "ļ"
      ],
      [
        "æ",
        "·"
      ],
      [
        "ä¸Ģ",
        "äºĽ"
      ],
      [
        "Ġs",
        "oc"
      ],
      [
        "å¼",
        "Ģ"
      ],
      [
        "å¤",
        "©"
      ],
      [
        "Ġe",
        "v"
      ],
      [
        "Ġre",
        "du"
      ],
      [
        "Ġthe",
        "m"
      ],
      [
        "Ġ",
        "("
      ],
      [
        "é",
        "ĥ½"
      ],
      [
        "æĪ",
        "·"
      ],
      [
        "è",
        "·"
      ],
      [
        "åľ",
        "º"
      ],
      [
        "æ°",
        "Ķ"
      ],
      [
        "è¯",
        "Ń"
      ],
      [
        "éĢļ",
        "è¿ĩ"
      ],
      [
        "å±",
        "ķ"
      ],
      [
        "Ġ",
        "O"
      ],
      [
        "Ġc",
        "o"
      ],
      [
        "å½",
        "±"
      ],
      [
        "ç",
        "¬"
      ],
      [
        "Ġan",
        "aly"
      ],
      [
        "æ¯",
        "Ķ"
      ],
      [
        "åħ",
        "¨"
      ],
      [
        "Ġimpro",
        "ve"
      ],
      [
        "ç»",
        "ĵ"
      ],
      [
        "å¹",
        "´"
      ],
      [
        "ç",
        "ķ"
      ],
      [
        "çĿ",
        "Ģ"
      ],
      [
        "Ġ",
        "qu"
      ],
      [
        "Ġh",
        "um"
      ],
      [
        "ç®",
        "Ĺ"
      ],
      [
        "é£",
        "Ł"
      ],
      [
        "il",
        "ity"
      ],
      [
        "Ġsystem",
        "s"
      ],
      [
        "åı",
        "ĺ"
      ],
      [
        "a",
        "il"
      ],
      [
        "ç",
        "¼"
      ],
      [
        "ç",
        "ł"
      ],
      [
        "è¿Ļ",
        "ä¸ª"
      ],
      [
        "æıĲ",
        "ä¾Ľ"
      ],
      [
        "as",
        "e"
      ],
      [
        "å",
        "ŀ"
      ],
      [
        "ment",
        "s"
      ],
      [
        "Ġp",
        "ot"
      ],
      [
        "Ġan",
        "y"
      ],
      [
        "ä½",
        "Ĩ"
      ],
      [
        "Ġcon",
        "s"
      ],
      [
        "æł",
        "¼"
      ],
      [
        "Ġa",
        "r"
      ],
      [
        "æľ",
        "¯"
      ],
      [
        "éĿ",
        "ŀ"
      ],
      [
        "Ġd",
        "o"
      ],
      [
        "Ġm",
        "ay"
      ],
      [
        "æĭ",
        "©"
      ],
      [
        "u",
        "e"
      ],
      [
        "éĢī",
        "æĭ©"
      ],
      [
        "r",
        "y"
      ],
      [
        "é",
        "ĥ"
      ],
      [
        "Ġl",
        "ike"
      ],
      [
        "on",
        "g"
      ],
      [
        "è",
        "ģ"
      ],
      [
        "`",
        "`"
      ],
      [
        "i",
        "le"
      ],
      [
        "æ±",
        "Ĥ"
      ],
      [
        "Ġne",
        "w"
      ],
      [
        "i",
        "ent"
      ],
      [
        "Ġimp",
        "act"
      ],
      [
        "è¿",
        "ĺ"
      ],
      [
        "æ³",
        "¨"
      ],
      [
        "ä¹",
        "Ī"
      ],
      [
        "çĽ",
        "®"
      ],
      [
        "âĢ",
        "ľ"
      ],
      [
        "âĢ",
        "Ŀ"
      ],
      [
        "e",
        "f"
      ],
      [
        "ä¾",
        "ĭ"
      ],
      [
        "Ġpot",
        "ential"
      ],
      [
        "åı¯",
        "èĥ½"
      ],
      [
        "o",
        "k"
      ],
      [
        "Ġtr",
        "ans"
      ],
      [
        "Ġa",
        "ct"
      ],
      [
        "ï¼",
        "ī"
      ],
      [
        "Ġspe",
        "c"
      ],
      [
        "Ġw",
        "ill"
      ],
      [
        "æ",
        "¶"
      ],
      [
        "äº",
        "¤"
      ],
      [
        "iz",
        "e"
      ],
      [
        "ç¾",
        "İ"
      ],
      [
        "å¸",
        "Ĥ"
      ],
      [
        "Ġst",
        "ud"
      ],
      [
        "p",
        "on"
      ],
      [
        "è",
        "º"
      ],
      [
        "ä¸į",
        "åĲĮ"
      ],
      [
        "å¾",
        "Ī"
      ],
      [
        "on",
        "e"
      ],
      [
        "åı",
        "Ĭ"
      ],
      [
        "å¦Ĥ",
        "æŀľ"
      ],
      [
        "çĲ",
        "ĥ"
      ],
      [
        "an",
        "ge"
      ],
      [
        "Ġne",
        "ed"
      ],
      [
        "å¤",
        "ĸ"
      ],
      [
        "et",
        "y"
      ],
      [
        "ak",
        "ing"
      ],
      [
        "è¯",
        "·"
      ],
      [
        "at",
        "er"
      ],
      [
        "Ġpers",
        "on"
      ],
      [
        "id",
        "ent"
      ],
      [
        "Ġs",
        "o"
      ],
      [
        "Ġm",
        "ake"
      ],
      [
        "å¹",
        "³"
      ],
      [
        "å¤",
        "Ł"
      ],
      [
        "èº",
        "«"
      ],
      [
        "ï¼",
        "Ī"
      ],
      [
        "Ġin",
        "form"
      ],
      [
        "æ",
        "¡"
      ],
      [
        "äº",
        "ĭ"
      ],
      [
        "åı",
        "Ĺ"
      ],
      [
        "as",
        "ed"
      ],
      [
        "il",
        "d"
      ],
      [
        "Ġof",
        "f"
      ],
      [
        "Ġthe",
        "re"
      ],
      [
        "c",
        "is"
      ],
      [
        "è",
        "¢"
      ],
      [
        "éĥ",
        "¨"
      ],
      [
        "æ¯",
        "ı"
      ],
      [
        "ra",
        "ct"
      ],
      [
        "ĠI",
        "n"
      ],
      [
        "as",
        "s"
      ],
      [
        "Ġlearn",
        "ing"
      ],
      [
        "å",
        "ĸ"
      ],
      [
        "å½",
        "¢"
      ],
      [
        "i",
        "re"
      ],
      [
        "ä»",
        "İ"
      ],
      [
        "ĠC",
        "an"
      ],
      [
        "bot",
        "s"
      ],
      [
        "è",
        "Ļ"
      ],
      [
        "å¸",
        "®"
      ],
      [
        "Ġd",
        "es"
      ],
      [
        "c",
        "ess"
      ],
      [
        "Ġp",
        "e"
      ],
      [
        "Ġwh",
        "o"
      ],
      [
        "if",
        "y"
      ],
      [
        "ä¹",
        "ł"
      ],
      [
        "æľ",
        "Ł"
      ],
      [
        "Ġexp",
        "eri"
      ],
      [
        "é",
        "Ĥ"
      ],
      [
        "Ġs",
        "c"
      ],
      [
        "e",
        "p"
      ],
      [
        "ä½",
        "ķ"
      ],
      [
        "Ġt",
        "ime"
      ],
      [
        "éĿŀ",
        "å¸¸"
      ],
      [
        "æĭ",
        "¬"
      ],
      [
        "å",
        "ķ"
      ],
      [
        "ä»¥",
        "ä¸ĭ"
      ],
      [
        "éģ",
        "ĵ"
      ],
      [
        "Ġcomm",
        "un"
      ],
      [
        "Ġc",
        "ould"
      ],
      [
        "a",
        "p"
      ],
      [
        "è",
        "Ĳ"
      ],
      [
        "è°",
        "ĥ"
      ],
      [
        "l",
        "ic"
      ],
      [
        "du",
        "ct"
      ],
      [
        "Ġit",
        "s"
      ],
      [
        "c",
        "y"
      ],
      [
        "è¯",
        "´"
      ],
      [
        "Ġm",
        "ed"
      ],
      [
        "Ġc",
        "ol"
      ],
      [
        "ul",
        "ar"
      ],
      [
        "éĩį",
        "è¦ģ"
      ],
      [
        "Ġs",
        "p"
      ],
      [
        "åĪ",
        "©"
      ],
      [
        "èµ",
        "·"
      ],
      [
        "Ġprov",
        "id"
      ],
      [
        "ic",
        "es"
      ],
      [
        "å",
        "Ļ"
      ],
      [
        "æĸ",
        "Ļ"
      ],
      [
        "Ġimp",
        "ort"
      ],
      [
        "ur",
        "al"
      ],
      [
        "åŃ",
        "Ĺ"
      ],
      [
        "Ġu",
        "nd"
      ],
      [
        "in",
        "t"
      ],
      [
        "Ġo",
        "ver"
      ],
      [
        "åı",
        "¸"
      ],
      [
        "æł",
        "¹"
      ],
      [
        "é",
        "¥"
      ],
      [
        "pl",
        "es"
      ],
      [
        "ä»ĸ",
        "ä»¬"
      ],
      [
        "g",
        "ra"
      ],
      [
        "ur",
        "ing"
      ],
      [
        "åį",
        "ķ"
      ],
      [
        "n",
        "ow"
      ],
      [
        "è¿Ļ",
        "äºĽ"
      ],
      [
        "åī",
        "į"
      ],
      [
        "å®",
        "ī"
      ],
      [
        "Ġp",
        "r"
      ],
      [
        "åĮħ",
        "æĭ¬"
      ],
      [
        "ç»",
        "Ļ"
      ],
      [
        "ä½",
        "į"
      ],
      [
        "å",
        "§"
      ],
      [
        "ç´",
        "ł"
      ],
      [
        "Ġad",
        "d"
      ],
      [
        "åĳ",
        "ĺ"
      ],
      [
        "Ġ",
        "ident"
      ],
      [
        "åŀ",
        "ĭ"
      ],
      [
        "å¼",
        "º"
      ],
      [
        "æĺ¯",
        "ä¸Ģ"
      ],
      [
        "i",
        "p"
      ],
      [
        "g",
        "or"
      ],
      [
        "Ġsu",
        "pport"
      ],
      [
        "n",
        "e"
      ],
      [
        "Ġdiff",
        "ere"
      ],
      [
        "åħ",
        "ĥ"
      ],
      [
        "Ġas",
        "s"
      ],
      [
        "åĨ",
        "³"
      ],
      [
        "é",
        "Ľ"
      ],
      [
        "åĲ",
        "į"
      ],
      [
        "Ġg",
        "o"
      ],
      [
        "Ġtechnolo",
        "gy"
      ],
      [
        "æĢ",
        "»"
      ],
      [
        "è®",
        "®"
      ],
      [
        "Ġin",
        "ter"
      ],
      [
        "Ġin",
        "v"
      ],
      [
        "Ġo",
        "ur"
      ],
      [
        "æķ",
        "Ī"
      ],
      [
        "ust",
        "om"
      ],
      [
        "Ġre",
        "l"
      ],
      [
        "if",
        "e"
      ],
      [
        "åĻ",
        "¨"
      ],
      [
        "ing",
        "s"
      ],
      [
        "ä»",
        "·"
      ],
      [
        "Ġp",
        "art"
      ],
      [
        "è¢",
        "«"
      ],
      [
        "æī",
        "ĭ"
      ],
      [
        "ar",
        "y"
      ],
      [
        "Ġres",
        "pon"
      ],
      [
        "Ċ",
        "ĠĠĠ"
      ],
      [
        "å¥½",
        "çļĦ"
      ],
      [
        "at",
        "ive"
      ],
      [
        "å¸®",
        "åĬ©"
      ],
      [
        "ĠH",
        "ere"
      ],
      [
        "ç»",
        "Ł"
      ],
      [
        "æĶ",
        "¾"
      ],
      [
        "ç",
        "ģ"
      ],
      [
        "Ġb",
        "ut"
      ],
      [
        "æģ",
        "¯"
      ],
      [
        "æŃ",
        "£"
      ],
      [
        "ar",
        "k"
      ],
      [
        "åħ¬",
        "åı¸"
      ],
      [
        "or",
        "y"
      ],
      [
        "å¢",
        "ĥ"
      ],
      [
        "le",
        "ct"
      ],
      [
        "é",
        "Ł"
      ],
      [
        "æĥ",
        "³"
      ],
      [
        "é£",
        "İ"
      ],
      [
        "at",
        "ing"
      ],
      [
        "Ġa",
        "m"
      ],
      [
        "it",
        "s"
      ],
      [
        "æ",
        "»"
      ],
      [
        "gor",
        "ith"
      ],
      [
        "åĵ",
        "į"
      ],
      [
        "ure",
        "s"
      ],
      [
        "ĠH",
        "ow"
      ],
      [
        "Ġeff",
        "ect"
      ],
      [
        "Ġsh",
        "ould"
      ],
      [
        "Ġp",
        "er"
      ],
      [
        "è",
        "±"
      ],
      [
        "ç",
        "²"
      ],
      [
        "ic",
        "t"
      ],
      [
        "Ġal",
        "gorith"
      ],
      [
        "u",
        "c"
      ],
      [
        "rou",
        "gh"
      ],
      [
        "ä»",
        "»"
      ],
      [
        "ä»",
        "¶"
      ],
      [
        "Ġbe",
        "t"
      ],
      [
        "i",
        "a"
      ],
      [
        "Ġanaly",
        "z"
      ],
      [
        "æł¹",
        "æį®"
      ],
      [
        "iz",
        "ed"
      ],
      [
        "æµ",
        "ģ"
      ],
      [
        "è§",
        "Ĥ"
      ],
      [
        "T",
        "he"
      ],
      [
        "è",
        "£"
      ],
      [
        "æł",
        "ĩ"
      ],
      [
        "ir",
        "on"
      ],
      [
        "Ġc",
        "ustom"
      ],
      [
        "Ġre",
        "g"
      ],
      [
        "Ġperson",
        "al"
      ],
      [
        "èĥ½",
        "å¤Ł"
      ],
      [
        "ic",
        "s"
      ],
      [
        "iv",
        "id"
      ],
      [
        "ç",
        "Ī"
      ],
      [
        "èµ",
        "Ħ"
      ],
      [
        "æŃ",
        "¥"
      ],
      [
        "å®",
        "¹"
      ],
      [
        "åĪ",
        "Ľ"
      ],
      [
        "è",
        "Ī"
      ],
      [
        "ä¹",
        "Ĳ"
      ],
      [
        "å¯",
        "¼"
      ],
      [
        "g",
        "an"
      ],
      [
        "Ġ",
        "U"
      ],
      [
        "èĬ",
        "Ĥ"
      ],
      [
        "Ġal",
        "l"
      ],
      [
        "en",
        "s"
      ],
      [
        "am",
        "e"
      ],
      [
        "n",
        "ess"
      ],
      [
        "Ġu",
        "p"
      ],
      [
        "èĢ",
        "ĥ"
      ],
      [
        "el",
        "f"
      ],
      [
        "åĢ",
        "¼"
      ],
      [
        "å°",
        "ĳ"
      ],
      [
        "æľ",
        "į"
      ],
      [
        "ar",
        "i"
      ],
      [
        "th",
        "ical"
      ],
      [
        "v",
        "iron"
      ],
      [
        "è",
        "ĥ"
      ],
      [
        "Ġs",
        "ign"
      ],
      [
        "or",
        "d"
      ],
      [
        "éĩ",
        "Į"
      ],
      [
        "ou",
        "nd"
      ],
      [
        "o",
        "ple"
      ],
      [
        "åŁ",
        "º"
      ],
      [
        "Ġinform",
        "ation"
      ],
      [
        "Ġident",
        "ify"
      ],
      [
        "åĽ",
        "ŀ"
      ],
      [
        "Ġc",
        "re"
      ],
      [
        "éŁ",
        "³"
      ],
      [
        "ib",
        "le"
      ],
      [
        "u",
        "b"
      ],
      [
        "è¿",
        "Ĳ"
      ],
      [
        "Ġle",
        "ad"
      ],
      [
        "æ¸",
        "¸"
      ],
      [
        "æ¬",
        "¡"
      ],
      [
        "åĨ",
        "Ļ"
      ],
      [
        "éĤ",
        "£"
      ],
      [
        "g",
        "et"
      ],
      [
        "è",
        "į"
      ],
      [
        "Ġexam",
        "ple"
      ],
      [
        "ä¼",
        "ĺ"
      ],
      [
        "å½±",
        "åĵį"
      ],
      [
        "is",
        "h"
      ],
      [
        "x",
        "t"
      ],
      [
        "æ",
        "º"
      ],
      [
        "éª",
        "Į"
      ],
      [
        "o",
        "b"
      ],
      [
        "å®",
        "¢"
      ],
      [
        "å¤",
        "ĩ"
      ],
      [
        "åģ",
        "¥"
      ],
      [
        "è½",
        "¦"
      ],
      [
        "ç¤",
        "¾"
      ],
      [
        "ivid",
        "ual"
      ],
      [
        "ere",
        "d"
      ],
      [
        "l",
        "es"
      ],
      [
        "Ġen",
        "viron"
      ],
      [
        "Ġpe",
        "ople"
      ],
      [
        "æĺ",
        "Ł"
      ],
      [
        "ç",
        "ĸ"
      ],
      [
        "ç",
        "ĭ"
      ],
      [
        "Ġd",
        "et"
      ],
      [
        "æĹ",
        "ł"
      ],
      [
        "Ġ",
        "if"
      ],
      [
        "o",
        "se"
      ],
      [
        "it",
        "e"
      ],
      [
        "Ġ",
        "J"
      ],
      [
        "å¢",
        "ŀ"
      ],
      [
        "é",
        "Ĵ"
      ],
      [
        "åĲĮ",
        "æĹ¶"
      ],
      [
        "è¿",
        "°"
      ],
      [
        "æĸ¹",
        "å¼ı"
      ],
      [
        "Ġ",
        "3"
      ],
      [
        "åĽ",
        "½"
      ],
      [
        "é",
        "»"
      ],
      [
        "å¤",
        "Ħ"
      ],
      [
        "Ġexam",
        "ples"
      ],
      [
        "æ",
        "®"
      ],
      [
        "Ġint",
        "o"
      ],
      [
        "æĮ",
        "ĩ"
      ],
      [
        "Ġhum",
        "an"
      ],
      [
        "åĲ",
        "ĳ"
      ],
      [
        "ç¤",
        "º"
      ],
      [
        "æķ°",
        "æį®"
      ],
      [
        "è",
        "ı"
      ],
      [
        "çİ¯",
        "å¢ĥ"
      ],
      [
        "al",
        "s"
      ],
      [
        "ers",
        "t"
      ],
      [
        "Ġe",
        "thical"
      ],
      [
        "ç»",
        "Ħ"
      ],
      [
        "ä¼",
        "ł"
      ],
      [
        "Ġdiffere",
        "nt"
      ],
      [
        "Ġk",
        "now"
      ],
      [
        "åº",
        "ı"
      ],
      [
        "Ġind",
        "ividual"
      ],
      [
        "æıĲ",
        "é«ĺ"
      ],
      [
        "rou",
        "nd"
      ],
      [
        "å°",
        "±"
      ],
      [
        "åı",
        "ĸ"
      ],
      [
        "åŃ",
        "ĺ"
      ],
      [
        "ä¸",
        "¤"
      ],
      [
        "çŁ",
        "¥"
      ],
      [
        "our",
        "ces"
      ],
      [
        "c",
        "k"
      ],
      [
        "å",
        "£"
      ],
      [
        "in",
        "es"
      ],
      [
        "è¾",
        "¾"
      ],
      [
        "Ġman",
        "y"
      ],
      [
        "æķ",
        "´"
      ],
      [
        "æł",
        "·"
      ],
      [
        "dit",
        "ional"
      ],
      [
        "om",
        "m"
      ],
      [
        "çĶ",
        "±"
      ],
      [
        "éĢ",
        "ł"
      ],
      [
        "å®ĥ",
        "ä»¬"
      ],
      [
        "u",
        "es"
      ],
      [
        "Ġm",
        "ent"
      ],
      [
        "Ġo",
        "pt"
      ],
      [
        "Ġimport",
        "ant"
      ],
      [
        "Ġlo",
        "c"
      ],
      [
        "p",
        "h"
      ],
      [
        "Ġpro",
        "cess"
      ],
      [
        "Ġalgorith",
        "ms"
      ],
      [
        "è®¾",
        "è®¡"
      ],
      [
        "Ġsoc",
        "ial"
      ],
      [
        "ver",
        "y"
      ],
      [
        "åĪ",
        "Ļ"
      ],
      [
        "ä¾ĭ",
        "å¦Ĥ"
      ],
      [
        "è®",
        "¤"
      ],
      [
        "Ġa",
        "ut"
      ],
      [
        "Ġs",
        "erv"
      ],
      [
        "g",
        "g"
      ],
      [
        "äº§",
        "åĵģ"
      ],
      [
        "è§",
        "Ħ"
      ],
      [
        "ve",
        "l"
      ],
      [
        "çľ",
        "ĭ"
      ],
      [
        "æĸ¹",
        "æ³ķ"
      ],
      [
        "Ġb",
        "en"
      ],
      [
        "åĽł",
        "æŃ¤"
      ],
      [
        "c",
        "are"
      ],
      [
        "p",
        "er"
      ],
      [
        "åĬ",
        "Ł"
      ],
      [
        "å»º",
        "è®®"
      ],
      [
        "Ġp",
        "os"
      ],
      [
        "æ",
        "¤"
      ],
      [
        "åĮ",
        "º"
      ],
      [
        "w",
        "e"
      ],
      [
        "i",
        "qu"
      ],
      [
        "Ġre",
        "al"
      ],
      [
        "æĹ",
        "¥"
      ],
      [
        "Ġredu",
        "ce"
      ],
      [
        "a",
        "f"
      ],
      [
        "ang",
        "u"
      ],
      [
        "Ġs",
        "k"
      ],
      [
        "Ġ",
        "ed"
      ],
      [
        "erst",
        "and"
      ],
      [
        "åĨ",
        "µ"
      ],
      [
        "m",
        "ot"
      ],
      [
        "åħ",
        "Ī"
      ],
      [
        "ç",
        "¥"
      ],
      [
        "åºĶ",
        "è¯¥"
      ],
      [
        "Ġth",
        "rough"
      ],
      [
        "Ġcon",
        "c"
      ],
      [
        "åıĳ",
        "å±ķ"
      ],
      [
        "è¯",
        "ķ"
      ],
      [
        "æ¡",
        "Ī"
      ],
      [
        "Ġenviron",
        "ment"
      ],
      [
        "åı",
        "£"
      ],
      [
        "ĠW",
        "h"
      ],
      [
        "Ġad",
        "v"
      ],
      [
        "åĪ",
        "«"
      ],
      [
        "Ġben",
        "ef"
      ],
      [
        "æ¸",
        "ħ"
      ],
      [
        "åĳ",
        "³"
      ],
      [
        "åħ",
        "ī"
      ],
      [
        "Ġdevelop",
        "ment"
      ],
      [
        "en",
        "g"
      ],
      [
        "å¦Ĥ",
        "ä½ķ"
      ],
      [
        "ç®",
        "¡"
      ],
      [
        "iv",
        "ers"
      ],
      [
        "åĲ",
        "Ħ"
      ],
      [
        "Ġr",
        "is"
      ],
      [
        "ro",
        "w"
      ],
      [
        "er",
        "gy"
      ],
      [
        "è®¡",
        "ç®Ĺ"
      ],
      [
        "ä¿¡",
        "æģ¯"
      ],
      [
        "Ġpro",
        "duct"
      ],
      [
        "è¾",
        "ĥ"
      ],
      [
        "è®",
        "º"
      ],
      [
        "èĩªå·±",
        "çļĦ"
      ],
      [
        "æĬ",
        "¤"
      ],
      [
        "åı",
        "į"
      ],
      [
        "åħ¶",
        "ä»ĸ"
      ],
      [
        "åĪ",
        "Ĺ"
      ],
      [
        "ç»",
        "Ĩ"
      ],
      [
        "ç©",
        "º"
      ],
      [
        "Ġg",
        "reat"
      ],
      [
        "e",
        "ar"
      ],
      [
        "æº",
        "Ĳ"
      ],
      [
        "j",
        "ect"
      ],
      [
        "çĶŁ",
        "æ´»"
      ],
      [
        "ä¸Ń",
        "çļĦ"
      ],
      [
        "Ġund",
        "erstand"
      ],
      [
        "è",
        "ĭ"
      ],
      [
        "Ġpro",
        "gra"
      ],
      [
        "ç",
        "Ĭ"
      ],
      [
        "Ġw",
        "rit"
      ],
      [
        "éĩ",
        "ĳ"
      ],
      [
        "Ġinclud",
        "ing"
      ],
      [
        "Ġacc",
        "ess"
      ],
      [
        "ĠĠĠĠ",
        "ĠĠĠ"
      ],
      [
        "è¯",
        "Ĩ"
      ],
      [
        "ç",
        "¦"
      ],
      [
        "o",
        "g"
      ],
      [
        "è£",
        "ħ"
      ],
      [
        "Ġar",
        "t"
      ],
      [
        "Ġinc",
        "re"
      ],
      [
        "Ġp",
        "h"
      ],
      [
        "æĸ¹",
        "éĿ¢"
      ],
      [
        "Ġp",
        "ract"
      ],
      [
        "Ġus",
        "ing"
      ],
      [
        "é¡",
        "¹"
      ],
      [
        "æİ",
        "¥"
      ],
      [
        "Ġway",
        "s"
      ],
      [
        "Ġl",
        "angu"
      ],
      [
        "æĶ",
        "¯"
      ],
      [
        "Ġch",
        "all"
      ],
      [
        "åİ",
        "»"
      ],
      [
        "__",
        "__"
      ],
      [
        "im",
        "ate"
      ],
      [
        "æĸ",
        "Ń"
      ],
      [
        "è",
        "¨"
      ],
      [
        "Ġw",
        "ell"
      ],
      [
        "l",
        "l"
      ],
      [
        "Ġp",
        "ol"
      ],
      [
        "æĢ",
        "ģ"
      ],
      [
        "Ġ",
        "ra"
      ],
      [
        "åİ",
        "Ł"
      ],
      [
        "b",
        "er"
      ],
      [
        "ĠF",
        "or"
      ],
      [
        "è¨",
        "Ģ"
      ],
      [
        "Ġg",
        "en"
      ],
      [
        "ç«",
        "ĭ"
      ],
      [
        "éħ",
        "į"
      ],
      [
        "æ·",
        "±"
      ],
      [
        "t",
        "e"
      ],
      [
        "ä¸",
        "ī"
      ],
      [
        "ç§",
        "ĳ"
      ],
      [
        "çº",
        "¿"
      ],
      [
        "ç",
        "ħ"
      ],
      [
        "æ",
        "¼"
      ],
      [
        "åķ",
        "Ĩ"
      ],
      [
        "æĿ",
        "Ĳ"
      ],
      [
        "Ġsign",
        "ific"
      ],
      [
        "Ġg",
        "u"
      ],
      [
        "Ġde",
        "cis"
      ],
      [
        "Ġtra",
        "in"
      ],
      [
        "Ġa",
        "g"
      ],
      [
        "Ġc",
        "reat"
      ],
      [
        "å®",
        "Į"
      ],
      [
        "æĹ¶",
        "éĹ´"
      ],
      [
        "Ġon",
        "e"
      ],
      [
        "è",
        "Ħ"
      ],
      [
        "Ġn",
        "at"
      ],
      [
        "åŃ¦",
        "ä¹ł"
      ],
      [
        "çļĦæ",
        "ķ"
      ],
      [
        "Ġwhe",
        "n"
      ],
      [
        "c",
        "ed"
      ],
      [
        "Ġb",
        "i"
      ],
      [
        "è",
        "İ"
      ],
      [
        "æĽ´",
        "åĬł"
      ],
      [
        "iv",
        "es"
      ],
      [
        "å·¥",
        "ä½ľ"
      ],
      [
        "p",
        "ort"
      ],
      [
        "v",
        "ing"
      ],
      [
        "Ġbe",
        "en"
      ],
      [
        "æĻ",
        "º"
      ],
      [
        "Ġl",
        "ife"
      ],
      [
        "å¼",
        "ķ"
      ],
      [
        "ar",
        "m"
      ],
      [
        "çİ",
        "ĩ"
      ],
      [
        "çĶ¨",
        "æĪ·"
      ],
      [
        "ä¹",
        "ī"
      ],
      [
        "ä»",
        "½"
      ],
      [
        "è¯",
        "Ŀ"
      ],
      [
        "in",
        "ess"
      ],
      [
        "c",
        "om"
      ],
      [
        "åº",
        "·"
      ],
      [
        "åĩ",
        "ı"
      ],
      [
        "ä»",
        "Ģ"
      ],
      [
        "è¾",
        "ĵ"
      ],
      [
        "Ġv",
        "ari"
      ],
      [
        "Ġmo",
        "d"
      ],
      [
        "ä»Ģ",
        "ä¹Ī"
      ],
      [
        "Ġen",
        "ergy"
      ],
      [
        "æĬĢ",
        "æľ¯"
      ],
      [
        "ert",
        "ain"
      ],
      [
        "m",
        "m"
      ],
      [
        "ver",
        "all"
      ],
      [
        "c",
        "on"
      ],
      [
        "åĪ",
        "Ĵ"
      ],
      [
        "Ġor",
        "gan"
      ],
      [
        "Ġro",
        "bots"
      ],
      [
        "æİ",
        "¨"
      ],
      [
        "ant",
        "s"
      ],
      [
        "åĩ",
        "Ĩ"
      ],
      [
        "d",
        "s"
      ],
      [
        "æŀ",
        "ģ"
      ],
      [
        "ç",
        "Ļ"
      ],
      [
        "Ġre",
        "qu"
      ],
      [
        "Ġ",
        "ess"
      ],
      [
        "ç®",
        "Ģ"
      ],
      [
        "ust",
        "ain"
      ],
      [
        "æ",
        "¨"
      ],
      [
        "Ġst",
        "r"
      ],
      [
        "c",
        "ing"
      ],
      [
        "ab",
        "ility"
      ],
      [
        "re",
        "e"
      ],
      [
        "Ġed",
        "uc"
      ],
      [
        "åİ",
        "Ĩ"
      ],
      [
        "Ġcre",
        "ate"
      ],
      [
        "åģ¥",
        "åº·"
      ],
      [
        "Ġdes",
        "ign"
      ],
      [
        "i",
        "ps"
      ],
      [
        "åģ",
        "ļ"
      ],
      [
        "èĬ",
        "±"
      ],
      [
        "in",
        "k"
      ],
      [
        "èı",
        "ľ"
      ],
      [
        "æī",
        "¾"
      ],
      [
        "æ®",
        "µ"
      ],
      [
        "Ġ",
        "V"
      ],
      [
        "æµ",
        "ĭ"
      ],
      [
        "ĠB",
        "y"
      ],
      [
        "å",
        "Ķ"
      ],
      [
        "é¦",
        "ĸ"
      ],
      [
        "Ġwhe",
        "re"
      ],
      [
        "è¯",
        "į"
      ],
      [
        "Ġdis",
        "c"
      ],
      [
        "äºĨ",
        "è§£"
      ],
      [
        "r",
        "ic"
      ],
      [
        "ä¸",
        "Ķ"
      ],
      [
        "è¶",
        "³"
      ],
      [
        "æĺ¯",
        "ä¸Ģä¸ª"
      ],
      [
        "ar",
        "ch"
      ],
      [
        "ç§",
        "¯"
      ],
      [
        "Ġ",
        "5"
      ],
      [
        "å¸",
        "¦"
      ],
      [
        "Ġwh",
        "ile"
      ],
      [
        "Ġsignific",
        "ant"
      ],
      [
        "çł",
        "ģ"
      ],
      [
        "ĠC",
        "h"
      ],
      [
        "æĪ",
        "¿"
      ],
      [
        "Ġbe",
        "ing"
      ],
      [
        "Ġlangu",
        "age"
      ],
      [
        "it",
        "ive"
      ],
      [
        "Ġanalyz",
        "e"
      ],
      [
        "ĠS",
        "t"
      ],
      [
        "2",
        "0"
      ],
      [
        "æĻ",
        "¯"
      ],
      [
        "è",
        "Į"
      ],
      [
        "ri",
        "b"
      ],
      [
        "æ¨",
        "¡"
      ],
      [
        "è´",
        "¹"
      ],
      [
        "'",
        "t"
      ],
      [
        "Ġhealth",
        "care"
      ],
      [
        "Ġexperi",
        "ence"
      ],
      [
        "ä¸ª",
        "äºº"
      ],
      [
        "ay",
        "s"
      ],
      [
        "è±",
        "¡"
      ],
      [
        "p",
        "lo"
      ],
      [
        "Ġw",
        "ould"
      ],
      [
        "èĻ",
        "ĳ"
      ],
      [
        "æĶ",
        "¶"
      ],
      [
        "é¢",
        "Ħ"
      ],
      [
        "é¢",
        "Ĩ"
      ],
      [
        "ä¿Ŀ",
        "æĮģ"
      ],
      [
        "en",
        "ces"
      ],
      [
        "åı",
        "ª"
      ],
      [
        "èĩ",
        "´"
      ],
      [
        "æĪ",
        "ı"
      ],
      [
        "Ġment",
        "al"
      ],
      [
        "Ġfe",
        "w"
      ],
      [
        "at",
        "es"
      ],
      [
        "è¿ĩ",
        "ç¨ĭ"
      ],
      [
        "å®ī",
        "åħ¨"
      ],
      [
        "Ġs",
        "ustain"
      ],
      [
        "Ġw",
        "ere"
      ],
      [
        "å¤",
        "ª"
      ],
      [
        "ç",
        "Į"
      ],
      [
        "Ġspec",
        "ific"
      ],
      [
        "Ġwor",
        "ld"
      ],
      [
        "çŃ",
        "Ķ"
      ],
      [
        "``",
        "`"
      ],
      [
        "Ġt",
        "ake"
      ],
      [
        "åħ",
        "»"
      ],
      [
        "éĢ",
        "Ł"
      ],
      [
        "e",
        "ver"
      ],
      [
        "S",
        "S"
      ],
      [
        "éĶ",
        "Ģ"
      ],
      [
        "Ġb",
        "o"
      ],
      [
        "he",
        "s"
      ],
      [
        "Ġm",
        "us"
      ],
      [
        "æľį",
        "åĬ¡"
      ],
      [
        "è§",
        "Ĵ"
      ],
      [
        "t",
        "en"
      ],
      [
        "æŀ",
        "Ĳ"
      ],
      [
        "p",
        "ow"
      ],
      [
        "d",
        "ict"
      ],
      [
        "ĠA",
        "s"
      ],
      [
        "v",
        "ent"
      ],
      [
        "çļĦæ",
        "Ĺ"
      ],
      [
        "1",
        "0"
      ],
      [
        "ĸ",
        "çķ"
      ],
      [
        "Ġpro",
        "t"
      ],
      [
        "ç½",
        "®"
      ],
      [
        "Ġh",
        "igh"
      ],
      [
        "Ġb",
        "us"
      ],
      [
        "Ġind",
        "ust"
      ],
      [
        "åĲ",
        "¦"
      ],
      [
        "c",
        "ial"
      ],
      [
        "äºº",
        "ä»¬"
      ],
      [
        "åĳ",
        "Ĭ"
      ],
      [
        "ad",
        "e"
      ],
      [
        "æĶ",
        "¹"
      ],
      [
        "ç",
        "Ĺ"
      ],
      [
        "Ġh",
        "ad"
      ],
      [
        "Ġhe",
        "r"
      ],
      [
        "Ġj",
        "ust"
      ],
      [
        "ï¼",
        "Ľ"
      ],
      [
        "è´",
        "Ń"
      ],
      [
        "ç¬",
        "¬"
      ],
      [
        "é",
        "ĵ"
      ],
      [
        "Ġw",
        "ater"
      ],
      [
        "Ġf",
        "ood"
      ],
      [
        "éĺ",
        "Ł"
      ],
      [
        "a",
        "us"
      ],
      [
        "Ġchall",
        "eng"
      ],
      [
        "åħ",
        "į"
      ],
      [
        "æĸĩ",
        "åĮĸ"
      ],
      [
        "Ġmo",
        "st"
      ],
      [
        "é",
        "¸"
      ],
      [
        "ç½",
        "ĳ"
      ],
      [
        "çĽ",
        "´"
      ],
      [
        "Ġs",
        "m"
      ],
      [
        "Ġact",
        "iv"
      ],
      [
        "plo",
        "y"
      ],
      [
        "O",
        "verall"
      ],
      [
        "å¿",
        "«"
      ],
      [
        "Ġ",
        "4"
      ],
      [
        "ru",
        "ct"
      ],
      [
        "Ġindividual",
        "s"
      ],
      [
        "å§",
        "ĭ"
      ],
      [
        "g",
        "ies"
      ],
      [
        "æŁ",
        "¥"
      ],
      [
        "çĪ",
        "±"
      ],
      [
        "i",
        "ety"
      ],
      [
        "åĪĨ",
        "æŀĲ"
      ],
      [
        "è§",
        "Ĩ"
      ],
      [
        "æ¸",
        "©"
      ],
      [
        "ç»",
        "´"
      ],
      [
        "ol",
        "ut"
      ],
      [
        "åŁ",
        "Ł"
      ],
      [
        "omm",
        "end"
      ],
      [
        "Ġcom",
        "ple"
      ],
      [
        "æķ",
        "Ļ"
      ],
      [
        "Ġb",
        "u"
      ],
      [
        "Ġeduc",
        "ation"
      ],
      [
        "at",
        "her"
      ],
      [
        "t",
        "ing"
      ],
      [
        "Ġf",
        "ind"
      ],
      [
        "æ²",
        "¡"
      ],
      [
        "ĠThe",
        "se"
      ],
      [
        "Ġh",
        "is"
      ],
      [
        "ä¹ĭ",
        "éĹ´"
      ],
      [
        "Ġeffect",
        "ive"
      ],
      [
        "Ġat",
        "t"
      ],
      [
        "Ġre",
        "se"
      ],
      [
        "èĥ½",
        "åĬĽ"
      ],
      [
        "åŁ",
        "İ"
      ],
      [
        "Ġal",
        "low"
      ],
      [
        "Ġa",
        "v"
      ],
      [
        "Ġpro",
        "mot"
      ],
      [
        "æĻº",
        "èĥ½"
      ],
      [
        "æ»",
        "¡"
      ],
      [
        "åħ",
        "±"
      ],
      [
        "ie",
        "w"
      ],
      [
        "c",
        "ome"
      ],
      [
        "ç³»",
        "ç»Ł"
      ],
      [
        "Ġrespon",
        "s"
      ],
      [
        "äº",
        "Ĵ"
      ],
      [
        "Ġc",
        "ult"
      ],
      [
        "pow",
        "ered"
      ],
      [
        "Ġrec",
        "ommend"
      ],
      [
        "èĲ",
        "¥"
      ],
      [
        "O",
        "SS"
      ],
      [
        "Ġch",
        "ange"
      ],
      [
        "è¯",
        "ģ"
      ],
      [
        "Ġwh",
        "at"
      ],
      [
        "v",
        "ed"
      ],
      [
        "I",
        "n"
      ],
      [
        "æİ",
        "Ĵ"
      ],
      [
        "è§£",
        "åĨ³"
      ],
      [
        "ic",
        "i"
      ],
      [
        "Ġfe",
        "el"
      ],
      [
        "æľ",
        "Ī"
      ],
      [
        "ä»¥",
        "åıĬ"
      ],
      [
        "Ġse",
        "e"
      ],
      [
        "åŃ",
        "©"
      ],
      [
        "b",
        "s"
      ],
      [
        "Ġs",
        "ur"
      ],
      [
        "æ",
        "£"
      ],
      [
        "al",
        "ity"
      ],
      [
        "Ġv",
        "is"
      ],
      [
        "ç¡®",
        "ä¿Ŀ"
      ],
      [
        "p",
        "ect"
      ],
      [
        "å®ŀ",
        "çİ°"
      ],
      [
        "Ġc",
        "are"
      ],
      [
        "å¹",
        "¿"
      ],
      [
        "ill",
        "s"
      ],
      [
        "åº",
        "Ń"
      ],
      [
        "as",
        "es"
      ],
      [
        "å¤",
        "į"
      ],
      [
        "åºĶ",
        "çĶ¨"
      ],
      [
        "çļĦæ",
        "ĥ"
      ],
      [
        "ard",
        "s"
      ],
      [
        "Ġadd",
        "ress"
      ],
      [
        "Ġcomp",
        "an"
      ],
      [
        "Ġinv",
        "ol"
      ],
      [
        "Ġcustom",
        "er"
      ],
      [
        "åĽł",
        "ä¸º"
      ],
      [
        "Ġstud",
        "ents"
      ],
      [
        "Ġin",
        "s"
      ],
      [
        "æ³¨",
        "æĦı"
      ],
      [
        "æŀ",
        "Ħ"
      ],
      [
        "æ¬",
        "¢"
      ],
      [
        "ĠY",
        "es"
      ],
      [
        "æµ",
        "·"
[...]
